node {
  name: "fc/Const"
  op: "Const"
  attr {
    key: "_output_shapes"
    value {
      list {
        shape {
          dim {
            size: 210
          }
          dim {
            size: 399
          }
        }
      }
    }
  }
  attr {
    key: "dtype"
    value {
      type: DT_FLOAT
    }
  }
  attr {
    key: "value"
    value {
      tensor {
        dtype: DT_FLOAT
        tensor_shape {
          dim {
            size: 210
          }
          dim {
            size: 399
          }
        }
        tensor_content: "\223\261\034\277%\201]?S\231\000\277\343\227\030\277\004\271\306?\311*\226\275l\026-\275\304\n\016\277\332W\265\277\207\000u\275O\361\324\2755\361I\276{T\366\275\3036\302\275b\257\275?$\323#\276{T\366\275\207\000u\275\311*\226\275]\321\020\276\316\215\255\275\316\215\255\275\000\256\350\276\311*\226\275Q6\346\275O\361\324\275{T\366\275\3036\302\275Q6\346\275\3036\302\275\3036\302\275{T\366\275\234\270\035\276\316\215\255\275~~\264\276O\361\324\275\316\215\255\275\316\215\255\275\311*\226\275O\361\324\275\253q:\276\3036\302\275\3036\302\275\370\306\217\276Q6\346\275\311*\226\275\207\000u\275\316\215\255\275\311*\226\275\316\215\255\275k\203N?+\0065\276\311*\226\275{T\366\275\207\000u\275\352\363\t\276\311*\226\275\207\000u\275\316\215\255\275\311*\226\275\316\215\255\275\207\000u\275\316\215\255\275\3036\302\275\3036\302\275\316\215\255\275\311*\226\275\311*\226\275j\024\204\276O\361\324\275$\323#\276\3036\302\275\207\000u\275\316\215\255\275Q6\346\275\370\306\217\276+\0065\276l\026-\275\014\365\213\276\316\215\255\275]\321\020\276{T\366\275l\026-\275O\361\324\275\311*\226\275\234\270\035\276O\361\324\275\227\240\234\276\\\340\215\276\3036\302\275O\361\324\275\207\000u\275\234\270\035\276\311*\226\275\223\213\257\276\352\363\t\276\316\215\255\275\316\215\255\275\361\272)\276\3036\302\275O\361\324\275\316\215\255\275Q6\346\275l\026-\275\316\215\255\275\352\363\t\276{T\366\275l\026-\2754\301\002\276\340\272?\276\311*\226\275\316\215\255\275\352\363\t\276\234\270\035\276\361\272)\276\311*\226\275\311*\226\275\311*\226\275Q6\346\275\316\215\255\2754\301\002\276;\002\221?\316\215\255\275\3036\302\275O\361\324\275Q6\346\275\311*\226\275\3036\302\275+u/\276\311*\226\275]\321\020\276\361\272)\276\3036\302\275\3036\302\275\3036\302\275p\331\332>.i=\276\340\234\215>\261\217\037>\355\033\373>r7\245>_\330\230>\312\3226>e\336<\276\327D}\276\006\263\351?\320\203\342\275\0135K\277P\245}\273k\031M?\350\021\003?\320\0133>\036\030B\276\330!\371>\2540\201\300V\2250>P\240\323=r:\236\275\313*\367>`N\337>R\247\034\274Y\251\240>\364\235\342>\370\030_>.\213\221>\007\327\026\300\267\346@\276C\353&>\265s\232=\266\026V\277u\254\201\300\230`\273\276\214\000\'\275\343\222\331=E\335\223>\245h\250>`\224\375=\316\365\236\275GJ\024\300\354\346R\276S\0339?\315\317\330>\021\302\021?\332wh\276`N\337>\263I\035?\361\023\346>\322Y\327>\223\314 >\330\202_>\347s\032\300\030\226\361>\214z\366=\330\350\367\277 g\177\300o\314\272=\330!\371>\323\302\001?\351\005\001?\243u\324;b\350\371=FL[>\264\376]>\317x\265>\220d\020\277\266u \277\320\212\345>\231.\021>a\307\322>P\337\035?J\353)>\232\342\336\275y\302\232=\254\016\305>\212p\314>\252C\177>\370\212\327=\312\177\305=\005\263\215\276\243\257\272>\340\232\256\276?\265\271\276\024sO?\333c\002\277\016H\201?A\252\227\277\340sJ\276\216g)\277\344\321\256>\226\372\005\277\276v\251\276\312@\367>\262\366\300=\254^v<$=q>\231\037\376\276\371`\261\276\251\006\206?N\365\233\277\315B2\276!\230\362\276^$\256>\242W4=W`\230?fA\300\277m\346\035?\035C\r>\021\311\343>\014\245V\300\315GC\277\232\024\242?\330\204R\277k$\037\275`\272;\2774=\223\276U9\230\277@\303#?L+*<\027\'\020?X\256Z?\271wJ\277>\302\r?N.\034\276\373d\332<\232hK?\257&\001\275\317\253\024?\252\3307\276\020\264M\277O\\T\276o\341\217?\3066\361>\3133<?\253\tL?\200#\274\277\014\260\347?*\303\026\277t\201\330\276\243\231\221\276X\034\221=\353\364\245\276\225\324\001?\277\322\307\276lC~\276f\375\255\276Oqf\277\215\326C\277\327$\373>^\301Z?\332Y\347\276\357\375K?w\331\247\277\0103\331\276\225\000\370<\345\334\365\275\037\275\367\276\355\016D>$\221i\277\260\357\'\277V9\206?%\256\220\277Ds\314\276\350\341L\2764\350\227\277~\330@\277-\000w\277\360\026\347>\240\364a?\202\240\334\276Wj\277>\020\320\223\277\014$Y>93a?\016S\024>\007\344\306>\326\321.?\376 \000\276\320\206\024\277\335L\">\261\341j?\227\336\276\276\017\035\372>\212\031\222?@\013\235\2776\3555\277E\023\204?|>\020?H!/?L\353\304\276\215sj?\277\017\232?.>\\?\030f\305>G\333-\275\264\344\302=\253\200\275?\305+d?{\344\025\277\307\311Q\274\215\335;\277\313\227\322>3\0021?Z\220\034\277\302\225\006?\251\344\256\277[\207R\277\364\272\n\274\317_\005=m|\013?\361\002\215?\316\237$?\370\235_\276\313\366\315\275\217LC\277d\002\010?xEG\275\3277\306\277\344fP?B\242G> \375\263=\030\240\345?\031\204M\276*\005\005?\246+\365\276\244\273j\277_\364s\277\271I\033\277\361\307\"\277\352\0272\277\231\326s<\305\301\217?\231^\213\277L\365\001>h\245\"? %\031?R\325\034\277\245\236\023\276=\303\013\277\245\376\206\2774W(?\274\372[\277%\313\022=^\331\231\275\230\020\t\276\037\316\223\276P%k\277km\016\276\214\234\036?ta\374\276]\367O\277F{\244\276K\217\327\276\207=\216?\260\206\315>\223\317\373\276\207\204\177\276\'U\361\276\006\365\223\277\250\357Z?3\022\323>%\201]?S\231\000\277\343\227\030\277\004\271\306?\311*\226\275l\026-\275\304\n\016\277\230_4?\207\000u\275O\361\324\2755\361I\276{T\366\275\3036\302\275\345p,\277$\323#\276{T\366\275\207\000u\275\311*\226\275]\321\020\276\316\215\255\275\316\215\255\275\000\256\350\276\311*\226\275Q6\346\275O\361\324\275{T\366\275\3036\302\275Q6\346\275\3036\302\275\3036\302\275{T\366\275[c\317@\316\215\255\275~~\264\276O\361\324\275\316\215\255\275\316\215\255\275\311*\226\275O\361\324\275\253q:\276\3036\302\275\3036\302\275L\200c@Q6\346\275\311*\226\275\207\000u\275\316\215\255\275\311*\226\275\316\215\255\275k\203N?+\0065\276\311*\226\275{T\366\275\207\000u\275\352\363\t\276\311*\226\275\207\000u\275\316\215\255\275\311*\226\275\316\215\255\275\207\000u\275\316\215\255\275\3036\302\275\3036\302\275\316\215\255\275\311*\226\275\311*\226\275j\024\204\276O\361\324\275$\323#\276\3036\302\275\207\000u\275\316\215\255\275Q6\346\275\370\306\217\276+\0065\276l\026-\275\014\365\213\276\316\215\255\275]\321\020\276{T\366\275l\026-\275O\361\324\275\311*\226\275\234\270\035\276O\361\324\275\227\240\234\276\\\340\215\276\3036\302\275O\361\324\275\207\000u\275\234\270\035\276\311*\226\275\223\213\257\276\352\363\t\276\316\215\255\275\316\215\255\275\361\272)\276\3036\302\275O\361\324\275\316\215\255\275Q6\346\275l\026-\275\316\215\255\275\352\363\t\276{T\366\275l\026-\2754\301\002\276\340\272?\276\311*\226\275\316\215\255\275\352\363\t\276\234\270\035\276\361\272)\276\311*\226\275\311*\226\275\311*\226\275Q6\346\275\316\215\255\2754\301\002\276\261\221a\277\316\215\255\275\3036\302\275O\361\324\275Q6\346\275\311*\226\275\3036\302\275+u/\276\311*\226\275]\321\020\276\361\272)\276\3036\302\275\3036\302\275\3036\302\275p\331\332>.i=\276\340\234\215>\261\217\037>\355\033\373>r7\245>_\330\230>\312\3226>e\336<\276\327D}\276\2068\233\277\320\203\342\275\0135K\277P\245}\273k\031M?\260\325\223\277\320\0133>\036\030B\276\330!\371>.\333\336>V\2250>E\215\002\300\002\000\327\277\313*\367>`N\337>R\247\034\274Y\251\240>\364\235\342>\370\030_>.\213\221>W\325f\277\267\346@\276C\353&>\265s\232=\266\026V\277Gk\335>\230`\273\276\214\000\'\275\343\222\331=E\335\223>\245h\250>`\224\375=\227\376\327\277\255Uc\277\354\346R\276S\0339?\315\317\330>\021\302\021?\332wh\276`N\337>\224\r\222\277aQ\251\277\322Y\327>\223\314 >\330\202_>\225J\211\275\030\226\361>\214z\366=\316\254\034>,^\323>o\314\272=\330!\371>\323\302\001?\316\364\362\276\243u\324;\243\350\036\277}\014\005\277\264\376]>\317x\265>\220d\020\277\266u \277\320\212\345>\231.\021>a\307\322>P\337\035?J\353)>\232\342\336\275y\302\232=\254\016\305>\212p\314>\252C\177>\370\212\327=\312\177\305=\005\263\215\276X2\001\277\340\232\256\276?\265\271\276\311\020\244>C\327X?\202\017\025\277\3319\255>k\376&\3004\243\335\276\225\234&\277\256\326R?\021\273\257\277\337,\033?a\257\240\277\275\256\027\277A\302\376<x\331\231?\317\225+?\350\224<\277(\024\242\276s>\270\277\352\351\313>9\206\243\276\371M\332\276\0352\353>\271\346-?\267\354\037\277\3300\177\276\005\254P?\020\273\227\276\313?\007\300\302\345\230\277\3050N?W!\234?m\010\322>k[\313\277\006f\004\300\265=\317?L\306\374?\246\364\014\276\317\017p?\256\013\232\276\223\030\263?Q;w\277\361L\266?^\233\324?\301^`\277\332l\246?j\000\341?\333\352\323?x}\263\276\354Xw\277\250Z \277A?\235?\301n\n\277\3605\366\2762\366x\276\317VC\277\265<\000\277\026 T\276\317\023\000\277a\0355?\322\036>\277\332\215\255?\234\254\224\276\360\204\256?\231\325\030\300E\241\315\276~\242\374\276\'3^>\223\322\255=\030{\264\276,O.?\014n\036?q\001\210=o,<=\377\233\t\276\213R\226\276Z\244\322>\0037\006\277\3656\200>\336\261\265\275\037+\254?\343!T\275\000\377\004\277.\306\327\277\025K\000\276\343^S\277\375\301\240\277_\312\205?\310\236\227=\n\034\206?\245\336R\277A\323\260=OL\341>\316m\214>\313\335 @p\222\213\277\310[|\275>1\247?\016\226\270\275(V\204\276\014r3\277\200\267\250\277\224\243/@\277 \341?\325\353\255\277\224\nR?e\037\311\277^\355E?\275\223\235\277\277\244r\277\363nD\277\375\037V?\204X.>\002O#\277\374@ \277lCX\277F\316\212?6\256F\277*\215$\277\ro\206>\r\376}>4\313\222\277\3678\206?(y\207\277\014k\205?\341\371\204\2770\n\372\275[Y\244\2772\267\014\277\017\335\030\277\210we\277\022u\335\277opn\277\253F}\275R\215P\277\246\006\320?\202 T=\301\360;\300\222\024\233=\243\337T?X\347\337>\245\267\017\300\221\030\034>l\307\013\277Wf\355\276\004\247N?\221*\263>\251\240\236\276\032.\202=\373\\\334\277N\303\313\275\262P:\277\210O\177\277\233\303\246=\251\302\310\276l \371\276^\372U>b\347\254=&2\310?\3438\033@\324\231\270\276\205\372\332\277\211]\006\300\234\252\207\276\274\227\216=\313\252\316\276\317\277\033@\304./\276\365\213\204?\2156\347?3\026\275?9\352h\277\204\017l>k/.?\367\021\226?\025\376\035?\'U\316?M\nB>9\251\330?%\201]?S\231\000\277\343\227\030\277\004\271\306?\311*\226\275l\026-\275\304\n\016\277\230_4?\207\000u\275O\361\324\2755\361I\276{T\366\275\3036\302\275\345p,\277$\323#\276{T\366\275\207\000u\275\311*\226\275]\321\020\276\316\215\255\275\316\215\255\275\000\256\350\276\311*\226\275Q6\346\275O\361\324\275{T\366\275\3036\302\275\206\025\016A\3036\302\275\3036\302\275{T\366\275\234\270\035\276\316\215\255\275~~\264\276O\361\324\275\316\215\255\275\316\215\255\275\311*\226\275O\361\324\275\253q:\276}k(A\3036\302\275\370\306\217\276Q6\346\275\311*\226\275\207\000u\275\316\215\255\275\311*\226\275\316\215\255\275k\203N?+\0065\276\311*\226\275{T\366\275\207\000u\275\352\363\t\276\311*\226\275\207\000u\275\316\215\255\275\311*\226\275\316\215\255\275\207\000u\275\316\215\255\275\3036\302\275\3036\302\275\316\215\255\275\311*\226\275\311*\226\275G\246w@O\361\324\275$\323#\276\3036\302\275\207\000u\275\316\215\255\275Q6\346\275\370\306\217\276+\0065\276l\026-\275\014\365\213\276\316\215\255\275]\321\020\276{T\366\275l\026-\275O\361\324\275\311*\226\275\234\270\035\276O\361\324\275\227\240\234\276\\\340\215\276\3036\302\275O\361\324\275\207\000u\275\234\270\035\276\311*\226\275\223\213\257\276\352\363\t\276\316\215\255\275\316\215\255\275\361\272)\276\3036\302\275O\361\324\275\316\215\255\275Q6\346\275l\026-\275\316\215\255\275\352\363\t\276{T\366\275l\026-\2754\301\002\276\340\272?\276\311*\226\275\316\215\255\275\352\363\t\276\234\270\035\276\361\272)\276\311*\226\275\311*\226\275\311*\226\275Q6\346\275\316\215\255\2754\301\002\276\261\221a\277\316\215\255\275\3036\302\275O\361\324\275Q6\346\275\311*\226\275\3036\302\275+u/\276\311*\226\275]\321\020\276\354\266\300@\3036\302\275\3036\302\275\3036\302\275p\331\332>.i=\276\340\234\215>\261\217\037>\355\033\373>r7\245>_\330\230>\312\3226>e\336<\276\327D}\276\2068\233\277\320\203\342\275\0135K\277P\245}\273\365\315\262\276\260\325\223\277\320\0133>\036\030B\276\330!\371>.\333\336>V\2250>P\240\323=r:\236\275\313*\367>`N\337>R\247\034\274Y\251\240>\364\235\342>\370\030_>.\213\221>W\325f\277\267\346@\276C\353&>\265s\232=\266\026V\277Gk\335>\230`\273\276\214\000\'\275\343\222\331=E\335\223>\245h\250>`\224\375=\316\365\236\275\255Uc\277\354\346R\276S\0339?\315\317\330>\021\302\021?\332wh\276`N\337>\224\r\222\277aQ\251\277\322Y\327>\223\314 >\330\202_>\225J\211\275\030\226\361>\214z\366=\316\254\034>,^\323>o\314\272=\330!\371>\323\302\001?\260\025\327\277\243u\324;b\350\371=FL[>\264\376]>\317x\265>\220d\020\277\266u \277\332\\\212\276w{T\277a\307\322>P\337\035?J\353)>\232\342\336\275y\302\232=\254\016\305>\212p\314>\252C\177>\370\212\327=\312\177\305=p\300=>\206w\227\277\340\232\256\276?\265\271\276\311\020\244>A\307\203\276\371\337\233>#H\251>fTO?\206DJ?tK\334\276\035\"r\277)3\341?N!\177\276\300\222\253?\345\007\250?fB\036\277L\320\347>\0025O?s@B\277\345\327i>h\013+>\231\000\221?6Z\327\277\217\352\237\277\245\274\374\275H\373\221?\260J$\277n\200\252\276\230\206\204\275*\201*?\2057\215\275}\'`?\367\037;\277\265M\213>&\032A\277\027n\000\2761\354\227?e\000\024\277\311qV\277d\353\335=\335\225\240\277\220\222\356\276B\366&\277\361\210\201>P\206\321\276\313\322t\277o4\375\276\"\217\020\277\251]\341\276\350\002\020>\335I\n\277\306\224\262\276F\324l>\022ZF\276\337\240\367\276x\366\323>\243Zw\277\266P\207\276A\377\003\277\275\224\263\276\346}\021\277\277\2113?_\272\231\276l\234\026\277\312\370\334>\232\246\034?\007`\356>\217\313\223\276\371=\226\276\240\370\003>\3779T>NJJ>3\351\310?\245\267\233\277\251\306,\277\214\303<\275\0103%\277e\357*>\003rl?.\205\226\276O\030\261>\t\202\030=\337AC?Q#o?\2165:?\230\257\"?\314\220!=p\244C?rG\241\277\253RY?\370S\222\277<\222b>\010.\203\273!\245\221\276\351\217\212\277\211\247\206>\252\305>\277\360\226T\277\326A\037?#\'\356>\201%#=\266\224\332=y\223&\277\271\301\010\277\340\326i?j\366\221?\3036\370\276\342\304\215\2775\321\033?\323\3346?\177q\032?\236\276\001?\007!2>\253C}?\342\264\000>/\321\230\277DMM\277\"\323\346\276\217{\244?Pb\303\276\313\270\036?\031\001#=\266\231#\275[\377\204>\r\312^\277\315h\022?cv0?yv!>\006N\002\300m\031K\276v\353m\277\376\343\027\277!)`?\241\351\235\277\214\371\035?<\352P\276\203jv>\272\3663?4{\245=\313\0004>+\036\237\277lI\276\277>h\237\276\275\035Q\277@\r\003\277\366\0338>?+\366\276\341\257\272?%lN\276z\005^?\230l\254\277\333(\363\275uT\007\276\371\273\007\277%H\302\277\013\340\201>3\351\032\277(\3336\276Q\224\014\277\224\362\002?\037Ls\277k\231\207\276\246\006D?\300\315\323\276\346\266\311=5\034\226>\017\016\267>\240>%\2761\033\276\277\240\246];EW >\233\221\251\276\202\n\204>\027\236\227\2773_\363\276\326\036\035>lv\251>\034\003\243\276\\\264`>\017\305T\273J\031\230\277%\201]?LZ\376?\343\227\030\277?\231$\277\311*\226\275l\026-\275\304\n\016\277\332W\265\277\207\000u\275g\233\031A5\361I\276{T\366\275\3036\302\275b\257\275?$\323#\276{T\366\275\207\000u\275\311*\226\275]\321\020\276\316\215\255\275\316\215\255\275\000\256\350\276\311*\226\275Q6\346\275O\361\324\275{T\366\275\3036\302\275Q6\346\275\3036\302\275\3036\302\275{T\366\275\234\270\035\276\316\215\255\275~~\264\276O\361\324\275\316\215\255\275\316\215\255\275\311*\226\275O\361\324\275\253q:\276\3036\302\275\3036\302\275\370\306\217\276Q6\346\275\311*\226\275\207\000u\275\316\215\255\275\311*\226\275\316\215\255\275k\203N?+\0065\276\311*\226\275{T\366\275\207\000u\275\352\363\t\276\311*\226\275\207\000u\275\316\215\255\275\311*\226\275\316\215\255\275\207\000u\275\316\215\255\275\3036\302\275\3036\302\275\316\215\255\275\311*\226\275\311*\226\275j\024\204\276O\361\324\275$\323#\276\3036\302\275\207\000u\275\316\215\255\275Q6\346\275\370\306\217\276+\0065\276l\026-\275\014\365\213\276\316\215\255\275]\321\020\276{T\366\275l\026-\275O\361\324\275\311*\226\275\234\270\035\276O\361\324\275\227\240\234\276\\\340\215\276\3036\302\275O\361\324\275\207\000u\275\234\270\035\276\311*\226\275\223\213\257\276\352\363\t\276\316\215\255\275\316\215\255\275\361\272)\276\3036\302\275O\361\324\275\316\215\255\275Q6\346\275l\026-\275\316\215\255\275\352\363\t\276{T\366\275l\026-\2754\301\002\276\340\272?\276\311*\226\275\316\215\255\275\352\363\t\276\234\270\035\276\361\272)\276\311*\226\275\311*\226\275\311*\226\275Q6\346\275\316\215\255\2754\301\002\276;\002\221?\316\215\255\275\3036\302\275O\361\324\275Q6\346\275\311*\226\275\3036\302\275+u/\276\311*\226\275]\321\020\276\361\272)\276\3036\302\275\3036\302\275\3036\302\275p\331\332>.i=\276U\355\210\300\316p\313\277\355\033\373>r7\245>\331c\266\277\312\3226>e\336<\276\327D}\276\001\365\234>\223[\324\277\0135K\277\321\365\n\300k\031M?\350\021\003?\320\0133>\036\030B\276\330!\371>.\333\336>V\2250>P\240\323=r:\236\275\313*\367>`N\337>R\247\034\274\2415\262\277\364\235\342>\370\030_>.\213\221>o\261\r?\267\346@\276C\353&>G\304\367\277\266\026V\277Gk\335>\230`\273\276\374\370$\300\343\222\331=r\360\264\277\245h\250>`\224\375=\316\365\236\275\302}\n?\354\346R\276S\0339?\315\317\330>\006\312\245\277\332wh\276`N\337>\263I\035?\361\023\346>\322Y\327>\223\314 >\003}\016\300\225J\211\275\030\226\361>\214z\366=\316\254\034>,^\323>o\314\272=\330!\371>\323\302\001?\351\005\001?\243u\324;b\350\371=FL[>\264\376]>\317x\265>\220d\020\277\266u \277\320\212\345>\231.\021>a\307\322>P\337\035?J\353)>\232\342\336\275=G+\277\214h$\300\212p\314>\252C\177>\370\212\327=\312\177\305=\005\263\215\276\243\257\272>\340\232\256\276?\265\271\276M\255-\300\241\314\021\276\365\013\377\275\376\216m\276Y\227M\277\230m\205\275\334\323 >t\274\033\277\217\365g?\265\276\206>r\372^>\372\333\000?\257\027\231=\026#\272=\020!\226>\313\222\206?\027\310{\275T\270$?\252A>?\016\tI\275\246\251X\276\325Q]\277\177\362z?\367\242\375=\244\tB\277-\356\207\276T\025\024?\352\313\251\276\010\352\247\277|\245\367\276\344\273<\274\264\247R?\246\305A<\254\235<=\323\345\262>\014\341g\2765\007\024\276\"FM\276X\253\303>9\340H\275\234\362\215\276\331U\222\2767#\322\276n\225\205\277\224\352\237>\247\352a\276\313\010O\277\254R\206>N\364E\277eF=?\253\3501\276\013W\"\277\356C\230>\021\260\036\277\317\375\324\274\000\223\026\277[\022\225\276\310\225\241=\241\256\n>\010x\215\277EE[\277\027H\217\276\035o\005\277\366\006}=R^i\276\346\241\021?\215\230\006\277\005\232\t\277HM^\276p.W?\360qv\276eD\022\276$\345\255\276l\240\361\276\317\2614>wF\313<n\214\301?\343\256\035\276\242r\205>k\360\340>\203\231\224\275vje>\266\032\337\276:\361\353>s|\243<o\206\204\277\340ft?\226j\247\277H\026\343=E\200\350\276\356j@<\310b2\277a\035)?%\340,?\262\256\210?Q\017J\277\334=\321:\246\265\234\276\3162\035\276\227\034\276\276\342E\310\277-\200d?\377\312J?\270D\211\276\305\246\224\277l\026\241\276\325\177\030\276\267\311D\277\tgd\277#\224U\277\333,\241\276\t|\324=\337\010\274=\250\363|\277\362e\327\275b\370\235>\202.Q\277=\341m?\035N~?0\366=\276N\341\355>\301o[\277\216\315z?\226\221\245\276\361<\005?j\325\200=II\314\275V7\014\277R\376H\277\323\330\235?\027\355\227\277\201\363)?\366\034\010\277:\367E?\227S4=\001;\336=kC\367?\031\201\244\275\230\025O?\370\323\324>\245\007\210?Yo\311\276\373\010\357\276^\344\370>\353\016\242?\363- \277\360\263\020?\'\225\374>|\271\302\276\275\r\014?_O\231\276\014\022\326\276>\2457\277P\264>\277\237\201\030\277*\032W>K*\001?q\343\223;\313\244\251?^\026]\2774\r\232\276\306\373\315?`\025\206\276f\231r?\351\010\016?\205<.\277\257L\034>\205\213~\277\001T\013>v=Z\276\310f\314\276\353\352\256>\376K\222\2758\206\336>\262\213\033>A\005z>\255\354;\276\240\265\207\277n\253\223\277S\231\000\277v[\326??\231$\277\311*\226\275l\026-\275\304\n\016\277\332W\265\277\207\000u\275O\361\324\2755\361I\276{T\366\275\3036\302\275\345p,\277$\323#\276{T\366\275\207\000u\275\311*\226\275\317\335\341@\316\215\255\275\316\215\255\275\000\256\350\276\311*\226\275Q6\346\275O\361\324\275{T\366\275\3036\302\275Q6\346\275\3036\302\275\3036\302\275{T\366\275\234\270\035\276\316\215\255\275~~\264\276O\361\324\275\316\215\255\275\316\215\255\275\311*\226\275O\361\324\275\253q:\276\3036\302\275\3036\302\275\370\306\217\276Q6\346\275\311*\226\275\207\000u\275\316\215\255\275\311*\226\275\316\215\255\275\243c\236\277+\0065\276\311*\226\275{T\366\275\207\000u\275\352\363\t\276\311*\226\275\207\000u\275\316\215\255\275\311*\226\275\316\215\255\275\207\000u\275\316\215\255\275\3036\302\275\3036\302\275\316\215\255\275\311*\226\275\311*\226\275j\024\204\276O\361\324\275$\323#\276\3036\302\275\207\000u\275\316\215\255\275Q6\346\275\370\306\217\276+\0065\276l\026-\275\014\365\213\276\316\215\255\275]\321\020\276{T\366\275l\026-\275O\361\324\275\311*\226\275\234\270\035\276O\361\324\275\227\240\234\276\\\340\215\276\3036\302\275O\361\324\275\207\000u\275\234\270\035\276\311*\226\275\223\213\257\276\352\363\t\276\316\215\255\275\316\215\255\275\361\272)\276\3036\302\275O\361\324\275\316\215\255\275Q6\346\275l\026-\275\316\215\255\275\352\363\t\276{T\366\275l\026-\2754\301\002\276\340\272?\276\311*\226\275\316\215\255\275\352\363\t\276\234\270\035\276\361\272)\276\311*\226\275\311*\226\275\311*\226\275Q6\346\275\316\215\255\2754\301\002\276\261\221a\277\316\215\255\275\3036\302\275O\361\324\275Q6\346\275\311*\226\275\3036\302\275+u/\276\311*\226\275]\321\020\276\361\272)\276\3036\302\275\3036\302\275\3036\302\275p\331\332>.i=\276\340\234\215>\261\217\037>\355\033\373>r7\245>_\330\230>\312\3226>e\336<\276\327D}\276\001\365\234>\320\203\342\275\0135K\277P\245}\273k\031M?\350\021\003?\320\0133>\036\030B\276\330!\371>.\333\336>V\2250>P\240\323=r:\236\275\313*\367>`N\337>R\247\034\274Y\251\240>\364\235\342>\370\030_>.\213\221>o\261\r?\267\346@\276C\353&>\265s\232=\266\026V\277Gk\335>\230`\273\276\214\000\'\275\343\222\331=E\335\223>\245h\250>`\224\375=\316\365\236\275\302}\n?\354\346R\276S\0339?\315\317\330>\021\302\021?\332wh\276`N\337>\263I\035?\361\023\346>\322Y\327>\223\314 >\330\202_>\225J\211\275\030\226\361>\214z\366=\316\254\034>,^\323>o\314\272=\330!\371>\323\302\001?\351\005\001?\243u\324;b\350\371=FL[>\264\376]>\317x\265>\220d\020\277\266u \277\320\212\345>\231.\021>a\307\322>P\337\035?J\353)>\232\342\336\275y\302\232=\254\016\305>\212p\314>\252C\177>\370\212\327=\312\177\305=\005\263\215\276\243\257\272>\340\232\256\276?\265\271\276\311\020\244>\354\312\017\275c\251}\277R\364\270\277\246\332#\277\261M\r\277\205\014\256\276\3702\316\276\000\014\345\276\266\303\177\277\303\r\221\275c\334\350>\327\364\202?\0274\216?\230\266\t?\301\2476\276\344\333\217\275}\0233\275\256c\007>\357\"v?\326$0?+\247n?\241\362\264\277%vP?\247v\035?\037\027\212\277\034M\320\277\235\211&@r\025\007=\365\002\205\275\313>\327<\000\\\256?\017\032\262\277z\3715\277\300I\207\276o\030\211=\241\337X?\316\354\315\277\310@\016?\340\010\254\276\243\370\246\274\341t$>d\023L\276W* ?^Q@\277\031\2266?\304ar@[R\252\276k1\206?\244Hi\277\250L\221\277B\022\260?\276\322\244\277\232\001\227\277\237e\n\274~\232\341\276\352\343/\275\300>(\276\324\253\301\277\31106?\342\356\263?\346\213\016\277\236.\312>\030x\010@\327\263\232>\311\031M\277\251\247\214?\240\000\376?K\002C\277\266\033C\277v)R>\r\266@?\240\243\225\276v\r2\276V\355\001\277\024\210\275\277\347N\314?\356G\266\277\204b}\277\032F\n\300\335s\315\276BV\214>\351\211\025\2775j\255=\345\347\020?*\257Y?\361\341\247\277vb]\274\354\340\375\274\237\304\276\277\301\206\332\277.\223B?u\r\363\276\302\206\023?\002\364\216? \370\322\277\201\236\325\276\r\203a\276\032v\302=\224b\207>\373\035\363>wgZ?)\310\255\277\001^ \277\"-$\277r}f?\230\256\232>\020\017\352?\232%\223?\343B\216?\211\231s?e\\{\277i%\204?U\n\017@\234&\263=\200\264\014=\250\r\020\276_7\262\277\321L\014=\013\335s\277\314B\250\276A\237\246?rmO?I\307\245\277\221\340\350\276BQ\221?\366_\220\277~\376\254\276\342\026\207=\3042\321\2771?\253?_\220K?p\001\017\277@4\231>\363\006\021\277kS\231\275\364G\223\275pt\377>q\271\232\2743O.\2761\324\214?\344\031\204?73\341\276\202\216\032?\374\366|\276\210I\226\276\252~W\275\n\304\313?t\251\350\276\204h\262\276\264}\215>JU\263\276&p\255\277In\001?\372\305m>\352\272\031\277\362Q\205\277\374x\200=nm\332?q13\300\247<#?\024b\326\276E\321\271>\025\365*\276\302\247\233?\006\006\357?\277\210\341>r\346\351>P\216\035\277\303\220\320?\227\261\\?{5\263\276\366\027\364\276\233l\217\277)(\200\277\023\t\033@\035r^\277\313\331\341\277n\253\223\277S\231\000\277\343\227\030\277\004\271\306?\311*\226\275l\026-\275\304\n\016\277\332W\265\277\207\000u\275O\361\324\2755\361I\276{T\366\275\3036\302\275\345p,\277$\323#\276{T\366\275\207\000u\275\311*\226\275]\321\020\276\316\215\255\275\316\215\255\275\313\223\014@\311*\226\275Q6\346\275O\361\324\275{T\366\275\3036\302\275Q6\346\275\3036\302\275\3036\302\275{T\366\275\234\270\035\276\316\215\255\275~~\264\276O\361\324\275\316\215\255\275\316\215\255\275\311*\226\275O\361\324\275\253q:\276\3036\302\275\3036\302\275\370\306\217\276Q6\346\275\311*\226\275\207\000u\275\316\215\255\275\311*\226\275\316\215\255\275k\203N?+\0065\276\311*\226\275{T\366\275\207\000u\275\352\363\t\276\311*\226\275\207\000u\275\316\215\255\275\311*\226\275\316\215\255\275\207\000u\275\316\215\255\275\3036\302\275\3036\302\275\316\215\255\275\311*\226\275\311*\226\275j\024\204\276O\361\324\275$\323#\276\3036\302\275\207\000u\275\316\215\255\275Q6\346\275\370\306\217\276+\0065\276l\026-\275\014\365\213\276\316\215\255\275]\321\020\276{T\366\275l\026-\275O\361\324\275\311*\226\275\234\270\035\276O\361\324\275\227\240\234\276\\\340\215\276\3036\302\275O\361\324\275\207\000u\275\234\270\035\276\311*\226\275\223\213\257\276\352\363\t\276\316\215\255\275\316\215\255\275\361\272)\276\3036\302\275O\361\324\275\316\215\255\275Q6\346\275l\026-\275\316\215\255\275\352\363\t\276{T\366\275l\026-\2754\301\002\276\340\272?\276\311*\226\275\316\215\255\275\352\363\t\276\234\270\035\276\361\272)\276\311*\226\275\311*\226\275\311*\226\275Q6\346\275\316\215\255\2754\301\002\276\261\221a\277\316\215\255\275\3036\302\275O\361\324\275Q6\346\275\311*\226\275\3036\302\275+u/\276\311*\226\275]\321\020\276\361\272)\276\3036\302\275\3036\302\275\3036\302\275p\331\332>.i=\276\340\234\215>\261\217\037>\355\033\373>r7\245>_\330\230>\312\3226>e\336<\276\327D}\276\2068\233\277\320\203\342\275\0135K\277P\245}\273k\031M?*\2324\300\320\0133>\036\030B\276\330!\371>.\333\336>V\2250>P\240\323=r:\236\275\313*\367>`N\337>R\247\034\274Y\251\240>\364\235\342>\370\030_>.\213\221>W\325f\277\267\346@\276C\353&>\265s\232=\266\026V\277Gk\335>\230`\273\276\214\000\'\275\343\222\331=E\335\223>\245h\250>`\224\375=\316\365\236\275\255Uc\277\354\346R\276S\0339?\315\317\330>\021\302\021?\332wh\276`N\337>\224\r\222\277aQ\251\277\322Y\327>\223\314 >\330\202_>\225J\211\275\030\226\361>\214z\366=\316\254\034>,^\323>o\314\272=\330!\371>\323\302\001?\272\221X\277\243u\324;b\350\371=FL[>\264\376]>\317x\265>\220d\020\277\266u \277\320\212\345>\231.\021>a\307\322>P\337\035?J\353)>\232\342\336\275y\302\232=\254\016\305>\212p\314>\252C\177>\370\212\327=\312\177\305=\005\263\215\276\221\nY\277\340\232\256\276?\265\271\276\311\020\244>o\246)<\365\204\375\276L\020f?ge\355\277Q\222\333>$\033\023?\211l\022>>\211T\277\232\257\026\276\030\316\211>\36561>\032ZZ\275\317\010\223>D\017\305>U\273K\277wd\222\275\031\301\210\277\212\322/?\337\325\234\276\264\267!?\r\315\\\277$\332\033@\341:\276\276#\026\327\273d\371\366>\037\302\231\276\373J\355\277Z\363\244\277\0333\314=\237\346{?\341\235D>\250\272W\277\320I\276\273\376\336 ?9\324\316>\032k\222\276Y\332\207\275[I\351\276\316\304\215>\330\324&>$u\026?\324\004\277?\205\251>\2773\307\030?\217\230\325>\362\230@?\\2\001\277\246\203\356\276*m\273\276q\277\261\275\307vY\277/\223\257\276\331\312+\277\024\360\020\277\037\213\005\277\223\371I\276\324\344u\276\227$\\?L\337p\277{\263\246=\032\243\t?\256\n-?D7\206\277Y;\226\276\341!\n\277\027\024\177\276\267\316\371\276\251Rt\276\t\223\320?\274\253\350?\376!\224?\314H\321\275\035\373\237\276\3753\264\276\005(\255?\207\020U\277\325\364\004?\037\346\311>\206\005o?*41?\016\216+\273r\350\005\300\020\017e?*\004\342>\213I\255\277\327@\242?\275\324\212>/+\223?\307p\262>5\033\213\274G\2126\276\003f\326\276\024\"\304?\267\"T\277\331,\216\277\255\237\314\275\377\275\361\276\033\3704\276\212\205\371=\327\203\335\277;\"\t@\220\240\273?\227J\330\277K\253\216\2779}\206\275\033/\230>{\237\354\276\241\032U\276\3779\"?\215\002\320?j|\217\276\363c\370\275\017t\274\277\263\260\016\277f\354\244?G\250\373\277\372\310\262\277\373wV\276\204\323\201>\352\350\346\277AV\201;\201\"$>6\355\003@\371\347\246\276\242,\300\276}=j\277\272\252\214\277t\341`\277\323\036\022\300\214j\227\2770VW=\336B3\276J\013\245\277{QT\273\345\322\n\277\225\253\311\277d\014\300\275\355/\'?\305\265\354>a\r\241\277a\337\021\277k\353\016\276\253\235\"\277\236\231\327?\227\320\205\276v\304\202?;\213\247?h\351\314\277\277\360\037\277\304\034\177\277\243\r\244\277\363\2121\276b\300y\2768u8\277\271F\233\277:f\207?D\376\231?\314\031\274\276\272\253\247=b\344\302\277\266\353\355\277y\247\021\277Q\202\207\274k\306\257\275\352\323\203?Ral>\260C\220\275\016\233a?Htx\277\331\206\013\277\233\022\036\276\032\260\233\276c\277\335>\036D\025@\311w\335>\212\211\241>>\025-\277n\253\223\277S\231\000\277\343\227\030\277\004\271\306?\311*\226\275l\026-\275\304\n\016\277\332W\265\277\207\000u\275O\361\324\2755\361I\276{T\366\275\3036\302\275\345p,\277$\323#\276{T\366\275\207\000u\275\311*\226\275]\321\020\276\316\215\255\275\316\215\255\275\313\223\014@\311*\226\275Q6\346\275O\361\324\275{T\366\275\3036\302\275Q6\346\275\3036\302\275\3036\302\275{T\366\275\234\270\035\276\316\215\255\275~~\264\276O\361\324\275\316\215\255\275\316\215\255\275\311*\226\275O\361\324\275Kp\257@\3036\302\275\3036\302\275L\200c@Q6\346\275\311*\226\275\207\000u\275\316\215\255\275\311*\226\275\316\215\255\275k\203N?+\0065\276\311*\226\275{T\366\275\207\000u\275\352\363\t\276\311*\226\275\207\000u\275\316\215\255\275\311*\226\275\316\215\255\275\207\000u\275\316\215\255\275\3036\302\275\3036\302\275\316\215\255\275\311*\226\275\311*\226\275j\024\204\276O\361\324\275$\323#\276\3036\302\275\207\000u\275\316\215\255\275Q6\346\275\370\306\217\276+\0065\276l\026-\275\014\365\213\276\316\215\255\275]\321\020\276{T\366\275l\026-\275O\361\324\275\311*\226\275\234\270\035\276O\361\324\275\227\240\234\276\\\340\215\276\3036\302\275O\361\324\275\207\000u\275\234\270\035\276\311*\226\275\223\213\257\276\352\363\t\276\316\215\255\275\316\215\255\275\361\272)\276\3036\302\275O\361\324\275\316\215\255\275Q6\346\275l\026-\275\316\215\255\275\352\363\t\276{T\366\275l\026-\275\277(\372@\340\272?\276\311*\226\275\316\215\255\275\352\363\t\276\234\270\035\276\361\272)\276\311*\226\275\311*\226\275\311*\226\275Q6\346\275\316\215\255\2754\301\002\276\261\221a\277\316\215\255\275\3036\302\275O\361\324\275Q6\346\275\311*\226\275\3036\302\275+u/\276\311*\226\275]\321\020\276\361\272)\276\3036\302\275}k(A\3036\302\275p\331\332>.i=\276\340\234\215>\316p\313\277\355\033\373>r7\245>_\330\230>\312\3226>e\336<\276\327D}\276\2068\233\277\320\203\342\275\0135K\277P\245}\273\365\315\262\276\260\325\223\277\320\0133>\036\030B\276\330!\371>.\333\336>V\2250>E\215\002\300\002\000\327\277\313*\367>`N\337>R\247\034\274Y\251\240>\364\235\342>\370\030_>\211\013\232\277W\325f\277\267\346@\276C\353&>\265s\232=\266\026V\277Gk\335>\230`\273\276\214\000\'\275\343\222\331=E\335\223>\245h\250>`\224\375=\227\376\327\277\255Uc\277\354\346R\276;\315\211\277\315\317\330>\006\312\245\277\332wh\276`N\337>\224\r\222\277aQ\251\277\322Y\327>\223\314 >\330\202_>\225J\211\275\030\226\361>\214z\366=\316\254\034>,^\323>o\314\272=\330!\371>\323\302\001?Z\272\367\277\243u\324;\0206\320\277\316\275\301\277\264\376]>\317x\265>\220d\020\277\266u \277\202\202X\277e\335\315\277N%\031\277&b\013\277J\353)>\232\342\336\275y\302\232=lu<\300\212p\314>\252C\177>\370\212\327=\312\177\305=\005\263\215\276\235I\360\277\340\232\256\276?\265\271\276\311\020\244>\357\025\027?\354\304\333\276T>u?\374\3741@5xp?\3756S?\224e\355\274\362\330\251\277\255\023\221\277\315Zn\276)\210\211?-\301{?]\rh\277\013YI\273\351\330C\277\031\247\\?\321\201\312\277\207\rR\275\022;\247\277\370\217\233\277\205d>@\273\t[?\372F\240\275!\266\301>9\365,>\272\312\244\277\304\237j?>U?@B[\241\276|Z\'\276\327f\307?\340\242`?\033\203y?\211`\234=z\364A<-y\234=_\335\337\277\241\3070>\227\324\277=pD\330\277\336P\031?\013\n\236\277\227\376\351\277\326\355\016>p\225\327\276R\356\r?\033:\205>\023\317n\276\2519\033\277:$\'\277U\361\275?\017\224\205>l\260\242\273T, ?\273\005\362\276\003\206\340=\312\254\253\276U\214\357\275\375\001\254\276\370\267\215\277\317\241\242>\213\334\277?\305\3624@\347\233q?$R\252>QML@\n9\222\276r\217\036\276\262\236x>I6\223\277\301\311[\277\303]\344\276\224\335&\276A\\y>D\341\000?9Q\262?\367\226.\277\002\274i>#\370t\276\237\365\000?\230\365\344\276\307\224\210\276\370y\357>\002\266\035@lqQ=X\001\261?\347\027\234\277\314\332\226=3rP\277D\213\273\276\237\337i>`\207\330>\325\346U\277V\372\270\275E.\032?i\220\207?\367U\016>\322\024R<\257CM@\330\3738\277S&s?\370\336\013?\336\371\321?r\230\225\276\300\001\273\275`\026]\275\2420\350\275Tz\210\276\265v\333\276\204\311\014\277\252\301N>\\\365\245\276\331\370\'\276\244\353\272\277\305\034\215\276\231\207b>\n\276\260\277\243My?\346\"\202\276G\264\342\277W\331j\277\020~\271\276\331\022\256>\361\201\225>h\337\244\277\n29\276D\342\217\276|Z\021\276C\232\034\300\320\333\211\277\230\245\030<l\2448\277\263\324\271>4\227\377\276X\035b?\030d\t@V^\316?\301\025=\276\252\273\254?\323\265s\277\377\262\340>x\344}=\017$\357=\311\037[\276\216\001 \276\211\320\225\2771\022\345\277\276\001\326\277m\202m\277\342\3026?;\265\005=r\r\'\277\303l\032>\003K\260\277C\353p\277\211\341)\276\005=\"?\023\315\342?\022S\010\300\376p\342>\342}\357?D\246\007@\274\273\347>ZK\253\277\275\364\335\2777\212\247?$\333\206?#\364\n\275i\016`?\313mf>\317\303\212\276Z1\352\276;\303~?r\252E\277\266\317\n?\220\021 \277\313\256\260\277%\201]?S\231\000\277\343\227\030\277\004\271\306?\311*\226\275l\026-\275\304\n\016\277\332W\265\277\207\000u\275O\361\324\2755\361I\276{T\366\275\3036\302\275b\257\275?$\323#\276{T\366\275\207\000u\275\311*\226\275]\321\020\276\316\215\255\275\316\215\255\275\000\256\350\276\311*\226\275Q6\346\275O\361\324\275{T\366\275\3036\302\275Q6\346\275\3036\302\275\3036\302\275{T\366\275\234\270\035\276\316\215\255\275~~\264\276O\361\324\275\316\215\255\275\316\215\255\275\311*\226\275O\361\324\275\253q:\276\3036\302\275\3036\302\275\370\306\217\276Q6\346\275\311*\226\275\207\000u\275\316\215\255\275\311*\226\275\316\215\255\275k\203N?+\0065\276\311*\226\275{T\366\275\207\000u\275\352\363\t\276\311*\226\275\207\000u\275\316\215\255\275\311*\226\275\316\215\255\275\207\000u\275\316\215\255\275\3036\302\275\3036\302\275\316\215\255\275\311*\226\275\311*\226\275j\024\204\276O\361\324\275$\323#\276\3036\302\275\207\000u\275\316\215\255\275Q6\346\275\370\306\217\276+\0065\276l\026-\275\014\365\213\276\316\215\255\275]\321\020\276{T\366\275l\026-\275O\361\324\275\311*\226\275\234\270\035\276O\361\324\275\227\240\234\276\\\340\215\276\3036\302\275O\361\324\275\207\000u\275\234\270\035\276\311*\226\275\223\213\257\276\352\363\t\276\316\215\255\275\316\215\255\275\361\272)\276\3036\302\275O\361\324\275\316\215\255\275Q6\346\275l\026-\275\316\215\255\275\352\363\t\276{T\366\275l\026-\2754\301\002\276\340\272?\276\311*\226\275\316\215\255\275\352\363\t\276\234\270\035\276\361\272)\276\311*\226\275\311*\226\275\311*\226\275Q6\346\275\316\215\255\2754\301\002\276;\002\221?\316\215\255\275\3036\302\275O\361\324\275Q6\346\275\311*\226\275\3036\302\275+u/\276\311*\226\275]\321\020\276\361\272)\276\3036\302\275\3036\302\275\3036\302\275p\331\332>\356:e@\340\234\215>\261\217\037>\355\033\373>r7\245>\345~I\300\312\3226>\212\006i@\327D}\276\001\365\234>\320\203\342\275\0135K\277P\245}\273k\031M?\350\021\003?\320\0133>\375:b@\330!\371>.\333\336>V\2250>P\240\323=r:\236\275\313*\367>`N\337>R\247\034\274\314JF\300\364\235\342>\370\030_>.\213\221>o\261\r?\005\327`@C\353&>\265s\232=\266\026V\277Gk\335>\310`A@\214\000\'\275\343\222\331=\033lG\300\245h\250>`\224\375=\316\365\236\275\302}\n?\354\346R\276S\0339?\315\317\330>\021\302\021?\210t?@`N\337>\263I\035?\361\023\346>\322Y\327>\223\314 >\330\202_>h\004\224@\030\226\361>\214z\366=\237\244\212@,^\323>o\314\272=\330!\371>\323\302\001?\351\005\001?\243u\324;b\350\371=FL[>\264\376]>\317x\265>\220d\020\277\266u \277\320\212\345>\231.\021>a\307\322>P\337\035?J\353)>\232\342\336\275y\302\232=\254\016\305>\212p\314>\252C\177>\370\212\327=\312\177\305=\005\263\215\276\243\257\272>\340\232\256\276?\265\271\276\311\020\244>C\307\375=H\205\022>\365\205\020\277\315W8\276<[\342>\233\211\202>\346\315Q\277c\254c?[F\351\276.+\225>\364Vn\276\247\210\301\275\272\301\305\276\243\224u\276|\302I<g\274t\276\352\033\277<#\332\237=\017& \276\311!\215\276\377d\025\276\266\2369\277\345\226\001\277X\2600\277\022]\211>\007\377\207\276\263%\314\276\233\205\004\277\007\007\233\277}\363\216\276\205~\306\275i$\215>\210pD\277+E\263=\266\327\254=5e\223>$.\201?\300\317y?\004\271\304=\030\301\"\277]\344\305>\230\261\201>\330\250~?xa\276\275]\220\344\276>\243\354\275Y\266\361\275\232\237\215?\270\316\323=\332\341\352>2R\003?\234L\371>\325\221[?\272B7>5\001T\276D\370\343\276\252F\223=\322<\215\277WO\"?\304\276\272\276\221\253X?M=\\?\006|\201\277\177;\036\276b\232\270=\274#R>\352A\014\277\332\350\205\276\336+\332\276\275\250\">E_>\2753zC\277\315}h\276\254z\016\276\326v\036\276\221\265\373=\324\343\211\276_\362\016\277\032\206b\276\261J~\276\251\356\306>\314\2736\2774{\253\276\037\305\215?j\243\260\276&`\001\276Z\263\346\275\362\254\026\277\323\006\004>=\307\030\276%\261\346>0,\024\277R\355\007\2773\305\231\276\243\330\000\276KU\333\276&\026\271\275\324\225\337\276\323s(\276\331<\223\275EXr\277\002\307*\276;}\246?\3732\346>(N\031?\317\234!?\356g)?b\2509?_\254M?\375\267\263>\276C\023=\302\327\210\276/u\235?d\377\244={\010e>K\203D\277/\363F\276\347v\212>\005R\314\274\rp\t?\022\342\231>\213O\254?\377\254\252\276\360!\350\276\254\031\273\277\223\235\270\277\021\017\307\276\306uY\277\307\"\356\277\225de@\303\024\001>\270\214\240\274\320\301U?O\024\362\275\236\3026\276\3472+?\261\037,\276\247\242\376?\032Xf>\204\371\213?\230I\262\276\374\250\240\276\032\213c?\347k\270\274\314\036\230\276\247\276\251\275\022\226\316\2765\030\220>V\005\255>5\255\t?\272-w?\264\347\211\277\373\\T>X\217X?\323`\323\277\306\320\336\276$0\241\275\375\263\2309\272n\220\277\254\203n\277s\n\233\276\351\223N>\023Pc\276$\311)?\\\255\215?(\371\020\276m\2432\275B\333\205\2751\207R\276\'\002\205\276M\0350\277\002\342K\277\231\325\245>\000C\001?\233\360\346\276o\367\005\277Jni\276%\201]?S\231\000\277v[\326??\231$\277\311*\226\275l\026-\275\304\n\016\277\230_4?\207\000u\275O\361\324\2755\361I\276{T\366\275\3036\302\275b\257\275?$\323#\276{T\366\275\207\000u\275\311*\226\275]\321\020\276\316\215\255\275\316\215\255\275\000\256\350\276\311*\226\275Q6\346\275O\361\324\275{T\366\275\3036\302\275Q6\346\275\3036\302\275\3036\302\275{T\366\275\234\270\035\276\316\215\255\275~~\264\276O\361\324\275\316\215\255\275\316\215\255\275\311*\226\275O\361\324\275\253q:\276\3036\302\275\3036\302\275\370\306\217\276Q6\346\275\311*\226\275\207\000u\275\316\215\255\275\311*\226\275\316\215\255\275k\203N?+\0065\276\311*\226\275{T\366\275\207\000u\275\352\363\t\276\311*\226\275\207\000u\275\316\215\255\275\311*\226\275\316\215\255\275\207\000u\275\316\215\255\275\3036\302\275\3036\302\275\316\215\255\275\311*\226\275\311*\226\275j\024\204\276O\361\324\275$\323#\276\3036\302\275\207\000u\275\316\215\255\275Q6\346\275\370\306\217\276+\0065\276l\026-\275\014\365\213\276\316\215\255\275]\321\020\276{T\366\275l\026-\275O\361\324\275\311*\226\275\234\270\035\276O\361\324\275\227\240\234\276\\\340\215\276\3036\302\275O\361\324\275\207\000u\275\234\270\035\276\311*\226\275\223\213\257\276\352\363\t\276\316\215\255\275\316\215\255\275\361\272)\276\3036\302\275O\361\324\275\316\215\255\275Q6\346\275l\026-\275\316\215\255\275\352\363\t\276{T\366\275l\026-\2754\301\002\276\340\272?\276\311*\226\275\316\215\255\275\352\363\t\276\234\270\035\276\361\272)\276\311*\226\275\311*\226\275\311*\226\275Q6\346\275\316\215\255\2754\301\002\276;\002\221?\316\215\255\275\3036\302\275O\361\324\275Q6\346\275\311*\226\275\3036\302\275+u/\276\311*\226\275]\321\020\276\361\272)\276\3036\302\275\3036\302\275\3036\302\275p\331\332>.i=\276\340\234\215>\261\217\037>\355\033\373>r7\245>_\330\230>\312\3226>e\336<\276\327D}\276\001\365\234>\320\203\342\275\032\242\202?P\245}\273\260\363\277\277\350\021\003?\320\0133>\036\030B\276\330!\371>.\333\336>V\2250>P\240\323=r:\236\275\313*\367>`N\337>R\247\034\274Y\251\240>\364\235\342>\370\030_>.\213\221>o\261\r?\267\346@\276C\353&>\265s\232=\262\357j?Gk\335>\230`\273\276\214\000\'\275\343\222\331=E\335\223>\245h\250>`\224\375=\316\365\236\275\302}\n?\354\346R\276S\0339?\315\317\330>\021\302\021?\332wh\276`N\337>\263I\035?\361\023\346>\322Y\327>\346a&@\330\202_>\225J\211\275\030\226\361>\212p\034@\316\254\034>,^\323>o\314\272=\330!\371>\323\302\001?\351\005\001?\243u\324;b\350\371=FL[>\264\376]>\317x\265>\220d\020\277\265\327[?+\264\203\276\302\372O\277a\307\322>P\337\035?J\353)>\232\342\336\275y\302\232=\254\016\305>\212p\314>\252C\177>\370\212\327=\312\177\305=\005\263\215\276\243\257\272>\340\232\256\276?\265\271\276\311\020\244>\372\213\246>s\026Y>\3355\'=\243\027\366>\370a\310\277\250\260\000\300l}\242\277{x\t\277\215 \356?\220\240\027\277l\007\022\277x\241_>\237\'\177\277\310\025\002\276\232mE?C\277\364\275I\014\331=\361\360b\276J+\005\277\2354\245\2776\225\355\275\037\237\202\277\270\360B?\024%\217\277\034w\355?=(%?\255 \035?(4\240\276\345\326\225\277\375\303\026>\016\244\317\274\026[o?\003K\007\277X\211E\276\375\242#\277\360\342~?\370<U=X\351W\276!\343\000>f\350\350>\"\316\303?\267qa\277wZ)>+\230\247\274\220\236\032?\'\217\234\276bxc?\260\303\240\277V^\205?L\343U\276J\222[?\002\304\274={\"\257?u\025\376\276\260_z<\311\202\304\276\035\336\345?%\037f\277.\364\351\276\335m\000\277\351\244k?&\265~?w\235\267>\234\276\210>\013\337\r?\265;\333?\270\004\341\276E\023\204>\026\312E\277\271\206?\277\306/z\277}G\226>?\360\224\275\3340\021\276\260D\242\277\305\350o\276\370t\237>4\216\243<\010\366I>\027\210\266>\013i\220\276\275\313\004\277\256\n7\277gb\"\277w\204\344\277\035\010g\277\340\016\370\276\001}\036\277]Uz=\035y\334>\027\221&>\007I\326?E5\222\2761S\211=\270\226\213\277Iq\245\276\241\205\302?$\357\013>\362Nj?\n\227\031\277\216\271\203\277\233<Y\277t\214M\277\315x\246\277\025\254\317>\004I\253\276W\3078\276a\360\002>:\001p\277\264\006\014\277\2252!>?\3179\277\243\320\r?h9\263\276\023\356\'\277\"q\314=\346\314\031\276\337p\r\277\321\001\351?\034\300\024>\257\343}?\213\024\370=\231\007\177\277\361\252\207=J5\303\277QN\036?$\354\256>M5\315>\260\325\345>\377\246\241\2769\n\350\276\254\215??ng\347\276\313\036\250\277\0108\301?\002\231C?\320\230\270\275\336\215}\277\352\214\206\275\000\227\321\276\273f\227\276\024Y\363=\257K\242\276\267\014\221\276\024Z\371>\332\221\"\277@g\r\277\2248\202?\362\314\211?\373\177\363\275op3>:\315\014\2777\274\210\277M\236\034\277\302R\017?\315\034\000\277\212\274\372\276\372\033\267<d\224\324?\230\224\204\275;6\234>\253\214\201=\033\233\334<\313\252\304>\343\201\201\277\377\225\235\277\220\240\013\277X\237\023\277#,\241\2765\371\344\276\3330\343?\370&\262?\036\332\261>o)4\277\242\tD\277\260\002\364>v\022\301\277n\253\223\277S\231\000\277v[\326??\231$\277\311*\226\275l\026-\275\304\n\016\277\332W\265\277\207\000u\275O\361\324\2755\361I\276{T\366\275\3036\302\275b\257\275?$\323#\276{T\366\275\207\000u\275\311*\226\275]\321\020\276\316\215\255\275\316\215\255\275\000\256\350\276\311*\226\275Q6\346\275O\361\324\275{T\366\275\3036\302\275Q6\346\275\3036\302\275\3036\302\275{T\366\275\234\270\035\276\316\215\255\275~~\264\276O\361\324\275\316\215\255\275\316\215\255\275\311*\226\275O\361\324\275\253q:\276\3036\302\275\3036\302\275\370\306\217\276Q6\346\275\311*\226\275\207\000u\275\316\215\255\275\311*\226\275\316\215\255\275\243c\236\277+\0065\276\311*\226\275{T\366\275\207\000u\275\352\363\t\276\311*\226\275\207\000u\275\316\215\255\275\311*\226\275\316\215\255\275\207\000u\275\316\215\255\275\3036\302\275\3036\302\275\316\215\255\275\311*\226\275\311*\226\275j\024\204\276O\361\324\275$\323#\276\3036\302\275\207\000u\275\316\215\255\275Q6\346\275L\200c@+\0065\276l\026-\275\014\365\213\276\316\215\255\275]\321\020\276{T\366\275l\026-\275O\361\324\275\311*\226\275\234\270\035\276O\361\324\275\227\240\234\276\\\340\215\276\3036\302\275O\361\324\275\207\000u\275\234\270\035\276\311*\226\275\223\213\257\276;\033\355@\316\215\255\275\316\215\255\275\361\272)\276\3036\302\275O\361\324\275\316\215\255\275Q6\346\275l\026-\275\316\215\255\275\352\363\t\276{T\366\275l\026-\2754\301\002\276\340\272?\276\311*\226\275\316\215\255\275\352\363\t\276\234\270\035\276\361\272)\276\311*\226\275\311*\226\275\311*\226\275Q6\346\275\316\215\255\2754\301\002\276\261\221a\277\316\215\255\275\3036\302\275O\361\324\275Q6\346\275\311*\226\275\3036\302\275+u/\276\311*\226\275]\321\020\276\361\272)\276\3036\302\275\3036\302\275\3036\302\275p\331\332>.i=\276\340\234\215>\272T\363?\355\033\373>r7\245>_\330\230>\312\3226>e\336<\276\327D}\276\2068\233\277\320\203\342\275\0135K\277P\245}\273\260\363\277\277\260\325\223\277\320\0133>\036\030B\276\330!\371>.\333\336>V\2250>E\215\002\300\002\000\327\277\313*\367>`N\337>\252\363+\300Y\251\240>\364\235\342>\370\030_>\211\013\232\277W\325f\277\267\346@\276C\353&>\265s\232=\266\026V\277Gk\335>\230`\273\276\214\000\'\275\343\222\331=E\335\223>\245h\250>`\224\375=\227\376\327\277\255Uc\277\210\3308\300;\315\211\277\315\317\330>\006\312\245\277\332wh\276`N\337>\224\r\222\277aQ\251\277\322Y\327>\223\314 >\330\202_>\225J\211\275\030\226\361>\214z\366=\316\254\034>,^\323>o\314\272=\330!\371>\323\302\001?\377\240,>N<(\277\333\037\034@M? @\264\376]>\317x\265>\220d\020\277\266u \277\320\212\345>\231.\021>\226\020z=\254\254Z>J\353)>\232\342\336\275y\302\232=\305\006\210\276\212p\314>\252C\177>d<Y\2776@r\277\ny^\277M\017\314;\340\232\256\276?\265\271\276\311\020\244>\356Fl\277a\000r\277\237)\256\277\274U\256>\247\r\363\276WU3\277\223\357\003?\236:\227?\206\234q\277\316\377\256\276\033\243\243\277Q\307Y?3\375\235?\200\004\336>\\\r\006?\214\372\010?\365\366\370?\366\355\222?\010\311\255\277\243u\374\277?8\316=\222\315;\277\026\374\200\276\374\017\250>\263\260\303>\253/\002@\202\257\312?\300\313\213\276\214X\261\276\314\363\\\274\273\335\254>K\377\344\276\322gc?\227\322\225\276\373\273\310\275\261\210\t?\223\271>\277\321\021c>6/\004\2775\246(=\312\2746\277\205\212\016\300\325\256@\274\1772\200>*Ib\277mJ\217?\001\213G?\367K\375\277vp\202?<^Y\277&\014\305\277H\242\247\276\210\277\207\277]\375\301\277\201N2\277\037\362\231\276?\000\223=PX8\277\213\237\002\300\276KC\277&\266\322>\354\302\322\276w:\371\277\221\203\301=\t{\322>\211\246\201?h\305\311\276\240\246\352\276\351\013]\276g5\354\277\0271\316\277\002\300\036@\361Fi\276\226\374N<0^\326\277\253\323\324=\257%\223\277\355 k\274r\274\223\277\236\211\"\277\251\237\203\277t\023\215?\341\235P\277\344\n\014@tn\005\300^f\313\277\035`U\277]n\221?\243\224\321\276C>\350>#\034\236\277?\374\235>:\271`\276\221\336S?\212\014\344\2764S\231\2764\023T?\033\337\t@\372\224\222>\233\327\242?J\364S\275\247J\274<\223\010<\300\315\240\354\277\367\326\r?\3676\240?r-P\276/\245l\276\321%\244\277\207(\204\277q|\210\275\374n\247\277DI\n\300\220\252\004@\3727g?\306\237\256?\304U]?\023:\235>\317$\365\276\260\326u?\241q\224\277\316\332\\>\254\374<\276\263?\003=G\026?\277\272:\021@ctQ@\227\367<@6\027\324?\310\254\022<;\252\027@)L\037\277K\304(?\333*/\277\217\nP?\020\017g?.\020\201\277\201D\005\300\371\335\020\277\265Bk@\315\251\256?\202U\030\277\210\300\267\275\244\343\030?\366\356)?\350\272L\276U\337\005\300\366\221\222?-\326\253\277\0201+\277~5\346\277\260\013\337\276bZ0?\314\026\337\277y\247\022@J\257\267\277\2279\315\274X\255\205=\202\336\017?\007\0317?B\362q?\275\302\247?\304\224\255?N\021k\275\303\324s\277q\2239?2\177q\277bW\030\276\002L\025>o\341\032\277eN\262<\313P\335?\303 \031> \356|\277\257\006\020@\251V\017??@^\277%\201]?S\231\000\277\343\227\030\277\004\271\306?\311*\226\275l\026-\275\304\n\016\277\332W\265\277\207\000u\275O\361\324\2755\361I\276{T\366\275\3036\302\275\345p,\277$\323#\276{T\366\275\207\000u\275\311*\226\275]\321\020\276\316\215\255\275\316\215\255\275\000\256\350\276\311*\226\275Q6\346\275O\361\324\275{T\366\275\3036\302\275Q6\346\275\3036\302\275\3036\302\275{T\366\275\234\270\035\276\316\215\255\275~~\264\276O\361\324\275\316\215\255\275\316\215\255\275\311*\226\275O\361\324\275\253q:\276\3036\302\275\3036\302\275\370\306\217\276Q6\346\275\311*\226\275\207\000u\275\316\215\255\275\311*\226\275\316\215\255\275k\203N?+\0065\276\311*\226\275{T\366\275\207\000u\275\352\363\t\276\311*\226\275\207\000u\275\316\215\255\275\311*\226\275\316\215\255\275\207\000u\275\316\215\255\275\3036\302\275\3036\302\275\316\215\255\275\311*\226\275\311*\226\275j\024\204\276O\361\324\275$\323#\276\3036\302\275\207\000u\275\316\215\255\275Q6\346\275\370\306\217\276\373\260\264@l\026-\275\014\365\213\276\316\215\255\275]\321\020\276{T\366\275l\026-\275O\361\324\275\311*\226\275\234\270\035\276O\361\324\275\227\240\234\276\\\340\215\276\3036\302\275O\361\324\275\207\000u\275\234\270\035\276\311*\226\275\223\213\257\276\352\363\t\276\316\215\255\275\316\215\255\275\361\272)\276\3036\302\275O\361\324\275\316\215\255\275Q6\346\275l\026-\275\316\215\255\275\352\363\t\276{T\366\275l\026-\2754\301\002\276\022\232\252@\311*\226\275\316\215\255\275\352\363\t\276\234\270\035\276\361\272)\276\311*\226\275\311*\226\275\311*\226\275Q6\346\275\316\215\255\2754\301\002\276\261\221a\277\316\215\255\275\3036\302\275O\361\324\275Q6\346\275\311*\226\275\3036\302\275+u/\276\311*\226\275]\321\020\276\361\272)\276\3036\302\275\3036\302\275\3036\302\275p\331\332>.i=\276\340\234\215>\316p\313\277\355\033\373>r7\245>_\330\230>\312\3226>e\336<\276\327D}\276\2068\233\277\320\203\342\275\0135K\277P\245}\273k\031M?\260\325\223\277\320\0133>\036\030B\276\330!\371>.\333\336>V\2250>E\215\002\300\002\000\327\277\313*\367>`N\337>R\247\034\274Y\251\240>\364\235\342>\370\030_>.\213\221>W\325f\277\267\346@\276C\353&>\265s\232=\266\026V\277Gk\335>\230`\273\276\214\000\'\275\343\222\331=E\335\223>\245h\250>`\224\375=\227\376\327\277\255Uc\277\354\346R\276S\0339?\315\317\330>\021\302\021?\332wh\276`N\337>\224\r\222\277aQ\251\277\322Y\327>\223\314 >\330\202_>\225J\211\275\030\226\361>\214z\366=\316\254\034>,^\323>o\314\272=\330!\371>\323\302\001?-\037\000\300\243u\324;9\017e\300\216T\\\300\264\376]>\317x\265>\220d\020\277\266u \277\320\212\345>\231.\021>a\307\322>P\337\035?J\353)>\232\342\336\275y\302\232=\254\016\305>\212p\314>\252C\177>\370\212\327=\312\177\305=\005\263\215\27697\363\277\340\232\256\276?\265\271\276\311\020\244>\310\243\271\274\207\341\223>\256\032\314\276g\236Y?c\246\234\277\251\305)\300Kn\365\277^U\226?u\235\265\275\237p+?_R\324\277\363\237d=\'\365\t\277\346\235\241>\244\352\243\276Y\362}\276@\325\333\276\033A\310=pr\225\277\375\242\234\277\320c\010?\333\201\002\277\\\345\004>\274b\275\277(\340\273>\\\365L?\007v\274\276\354nd>\003\360$\277~\326#=\323\204\331>O\214\352>\210\271\220?+![\277\244\356T\276\335\027Q>\204\024\337\276\263s\031\277#r\312\276.\265R=\252\306\016?\355\371\272\277\235F\232\275\264\361\202\276(3 >\311\330\265\276\331^\233>\306Oz\277\031\254\243=\365\006\004?\364X,\276\272\265@<UXT>\216\r\236;\206D\205\276\276\256\256\276\313\004T?/\374y\276\037\237\213\275\002\340\375\276\3062H?\027)\177>\210\'d\277\323$\251<\370\353\242<\201\\G>E\274\210\276v9\025\276\010\257y\276\000\354\310\277Q\257\313\277\217G\335\275\263\251\316\2765\356\215\276\232\003\256\277#7 \276\367\246\230\275\335\316\271\276P\2365\275}\242\213=8\224\276>D\035\244?\202y\323<\323\253\346\276\206\t\025\300&\331L\277\033S(\277\356\317 >k\363\346\275\336A9>\324\007*\277\203\323q?\265gN\277\224\355\273\276\334\355\321>\3015\352>r\336\014?\224A\207\276Z\237\242>\243t\226\277O2\035\276\362#C>2_j\276%\273%\277HV\216?\217\305\004?\206E\241?H|W?(\350\313=Kgv>\316\317[\275\233\207\223\277\360\025\\\277\3060\t?9\223B\276\250\271\304>\303\231\334>l\354\023\276\235\0136?\255\320\352>*\277\344>\250\256\022?\226\232\306\277\321\367\213?t\030\274\277\373V\337?\016v\257\276\234d8\275\200\301\023>\357&\002\277\330\370\003\277\210\221}\276\361j\002>~\266m\275`\270\016?\315\342\314?\342\237\t\277\272\335\025\300\303n\004\277\370,\r\277\250\310g\276\201\360\260\275\327\253u\276YO\267>|e\350>\322\372\210>\'\366\215\277\037\366\217<=~.?\032\301\267\276\215\215_\277\004\325\014\276\251\341\265\277]r?\276y\237\'\277\0331\226\276\300\3511\277\n\375\036\276\231\274\236<L\245\"?)Ih?G\0216\275[\243\346>\242\345\n?a\340\261\277\010xb>\341\r\034?\026\247\"\277n\327\264\276\236\260\222\277\r\351=?\r\024:?S \374>Y\216R\277\306\270\226\276\355\025\034\276|\324\367\276%\201]?S\231\000\277v[\326??\231$\277\311*\226\275l\026-\275\304\n\016\277\332W\265\277\207\000u\275O\361\324\2755\361I\276{T\366\275\3036\302\275\345p,\277$\323#\276{T\366\275\207\000u\275\311*\226\275]\321\020\276\316\215\255\275\316\215\255\275\313\223\014@\311*\226\275Q6\346\275O\361\324\275{T\366\275\3036\302\275Q6\346\275\3036\302\275\3036\302\275{T\366\275\234\270\035\276\316\215\255\275~~\264\276O\361\324\275\316\215\255\275\316\215\255\275\311*\226\275O\361\324\275\253q:\276\3036\302\275\3036\302\275L\200c@Q6\346\275\311*\226\275\207\000u\275\316\215\255\275\311*\226\275\316\215\255\275k\203N?+\0065\276\311*\226\275{T\366\275\207\000u\275\352\363\t\276\311*\226\275\207\000u\275\316\215\255\275\311*\226\275\316\215\255\275\207\000u\275\316\215\255\275\3036\302\275\3036\302\275\316\215\255\275\311*\226\275\311*\226\275j\024\204\276O\361\324\275$\323#\276\3036\302\275\207\000u\275\316\215\255\275Q6\346\275\370\306\217\276+\0065\276l\026-\275\014\365\213\276\316\215\255\275]\321\020\276{T\366\275l\026-\275O\361\324\275\311*\226\275\234\270\035\276O\361\324\275\227\240\234\276\226\214f@\3036\302\275O\361\324\275\207\000u\275\234\270\035\276\311*\226\275\223\213\257\276\352\363\t\276\316\215\255\275\316\215\255\275\361\272)\276\3036\302\275O\361\324\275\316\215\255\275Q6\346\275l\026-\275\316\215\255\275\352\363\t\276{T\366\275l\026-\2754\301\002\276\340\272?\276\311*\226\275\316\215\255\275\352\363\t\276\234\270\035\276\361\272)\276\311*\226\275\311*\226\275\311*\226\275Q6\346\275\316\215\255\2754\301\002\276\261\221a\277\316\215\255\275\3036\302\275O\361\324\275Q6\346\275\311*\226\275\3036\302\275+u/\276\311*\226\275]\321\020\276\361\272)\276\3036\302\275\3036\302\275\3036\302\275p\331\332>.i=\276\340\234\215>\261\217\037>\355\033\373>r7\245>_\330\230>\312\3226>e\336<\276\327D}\276\001\365\234>\320\203\342\275\0135K\277P\245}\273k\031M?\260\325\223\277\320\0133>\036\030B\276\330!\371>.\333\336>V\2250>P\240\323=r:\236\275\313*\367>`N\337>R\247\034\274Y\251\240>\364\235\342>\370\030_>.\213\221>W\325f\277\267\346@\276C\353&>\265s\232=\266\026V\277Gk\335>\230`\273\276\214\000\'\275\343\222\331=E\335\223>\245h\250>`\224\375=\316\365\236\275\255Uc\277\354\346R\276S\0339?\315\317\330>\021\302\021?\332wh\276`N\337>\224\r\222\277aQ\251\277\322Y\327>\223\314 >\330\202_>\225J\211\275\030\226\361>\214z\366=\316\254\034>,^\323>o\314\272=\330!\371>\323\302\001?\260\374\345\277\243u\324;b\350\371=FL[>\264\376]>\317x\265>\220d\020\277\266u \277\320\212\345>\231.\021>a\307\322>P\337\035?J\353)>\232\342\336\275y\302\232=\254\016\305>\212p\314>\252C\177>\370\212\327=\312\177\305=\005\263\215\276\243\257\272>\340\232\256\276?\265\271\276\311\020\244>\222\355 \277g=\353?_w\245\277\257\350\033?\236\024\251\276x\312z?\327\234\244\277ZR\227\276\345\236\310??6%?\207\006\031?\031\025\t\277\310\336\013\300\205\376v\277y\003\206\277\256\222y\276\225A\023\276y\251\301\276\245\033\260?ZG\242?\264%\007?\312\357?\2770\273\235>x\253x;\237J$\276\027\200\357>\027\212\227\273OLw?\334\373\321\276\020\200\355\275\204F\247\275i[\001\277\304\026\316>\365s??\235\217\203\277\340\343\224?\363%\245\277\364?F\277y\210\242>\030\373\350\276\231\344\376\276j_\252\276\352\373E\275\357S\242\275\260&F\277ES|\277\000\207\003\276mb\307\277\357\260\r?\032%\024?\"\363\201\277\003\263\277?\353e\037>+\326H?\264\215\256?\363f^\276\306P\030?\305\270\337\277\2628\207\2777r\010\277\265\323i>\346\355\342>\333\200+@\310K#>7\367\353>\332\332r=\303\344v\276\262}Y?e\022O\277\017\306\001?\221\036\367?\322\345\220\276\341t\207?\324D\034?p\233\377?j\211\200>D\000\021\277\354\223R\277\203\2643\277W\036\331>%\260^\277J#K?\357\210\271\277\351F\317\277!\220\004\277_F\311\277\r\226\320>\271 \202\277\200l\022?W\200\r?\214hf\277\341\366\"?\236\250\251\276\323HA\277G\234\276?R\210\223?\222J|?\373\211M\276\365\3571\277\025\210\202>I\035a\277\020\230C\277Z\245\256?\342x\312?u8{?dk\203?\020\342\326=6\377R\276\033\215\t\277H\n\024\277\257;K>\034\224\322>\027\006d\275\247\300\033\300\326\362\005\277\360n\224>\315\272\235>\256\'\207>\302\211]?tf\362\275\034U\231\277\",\333>\000\206\235\277G\206N?\372\326C?\323\367f?U\367\213>\361\321\264>\004\237Y\275\274\274\225\276\005\305X\277\331\357/@\222]d?(e\227\277@r\260>\362t\004@\247\242L@g\3468>\201b\256\277\313L\246\277b\260\344\276\241\036\336>v\205\210\277\375\310\217\277\"\000\274\276\346/{\276\360,\206?\327\254w?\021\0253\276\2405\215\2779B!\277\260j\274?ge\344?\263\002\231\276\214B\207\277k\242\374\276\367\314^\277%\347\244\277\331\326!\277:[\350?\347\330\t>\310\024\323>\021\201C?u\324\316\276\313|*>Zy\262\276\225\204\231\277\250)\260=\352\r\274\277i\351\251\276+\024\315\275\215\263C\276v#!>F\346\217\277y\265\020\2779\221\210=oP\n?%\201]?S\231\000\277\343\227\030\277\004\271\306?\311*\226\275l\026-\275\304\n\016\277\230_4?\207\000u\275O\361\324\2755\361I\276{T\366\275\3036\302\275\345p,\277$\323#\276{T\366\275\207\000u\275\311*\226\275]\321\020\276\316\215\255\275\316\215\255\275\313\223\014@\311*\226\275Q6\346\275O\361\324\275{T\366\275\3036\302\275Q6\346\275\3036\302\275\3036\302\275{T\366\275\234\270\035\276\316\215\255\275~~\264\276O\361\324\275\316\215\255\275\316\215\255\275\311*\226\275O\361\324\275\253q:\276\3036\302\275\3036\302\275\370\306\217\276Q6\346\275\311*\226\275\207\000u\275\316\215\255\275\311*\226\275\316\215\255\275k\203N?+\0065\276\311*\226\275{T\366\275\207\000u\275\352\363\t\276\311*\226\275\207\000u\275\316\215\255\275\311*\226\275\316\215\255\275\207\000u\275\316\215\255\275\3036\302\275\3036\302\275\316\215\255\275\311*\226\275\311*\226\275G\246w@O\361\324\275$\323#\276\3036\302\275\207\000u\275\316\215\255\275Q6\346\275\370\306\217\276+\0065\276l\026-\275\352\265i@\316\215\255\275]\321\020\276{T\366\275l\026-\275O\361\324\275\311*\226\275\234\270\035\276O\361\324\275\227\240\234\276\\\340\215\276\3036\302\275O\361\324\275\207\000u\275\234\270\035\276\311*\226\275\223\213\257\276\352\363\t\276\316\215\255\275\316\215\255\275\361\272)\276\3036\302\275O\361\324\275\316\215\255\275Q6\346\275l\026-\275\316\215\255\275\352\363\t\276{T\366\275l\026-\2754\301\002\276\340\272?\276\311*\226\275\316\215\255\275\352\363\t\276\234\270\035\276\354\266\300@\311*\226\275\017\322YA\311*\226\275Q6\346\275\316\215\255\2754\301\002\276\261\221a\277\316\215\255\275\3036\302\275O\361\324\275Q6\346\275\311*\226\275\3036\302\275+u/\276\311*\226\275]\321\020\276\361\272)\276\3036\302\275\3036\302\275\3036\302\275p\331\332>.i=\276\340\234\215>\261\217\037>\355\033\373>r7\245>_\330\230>\312\3226>e\336<\276\327D}\276\2068\233\277\320\203\342\275\0135K\277P\245}\273k\031M?\260\325\223\277\320\0133>\036\030B\276\330!\371>.\333\336>V\2250>P\240\323=r:\236\275\313*\367>`N\337>R\247\034\274Y\251\240>\364\235\342>\370\030_>.\213\221>W\325f\277\267\346@\276C\353&>\265s\232=\266\026V\277Gk\335>\230`\273\276\214\000\'\275\343\222\331=E\335\223>\245h\250>`\224\375=\316\365\236\275\255Uc\277\354\346R\276S\0339?\315\317\330>\021\302\021?\332wh\276`N\337>\224\r\222\277aQ\251\277\322Y\327>\223\314 >\330\202_>\225J\211\275\030\226\361>\214z\366=\316\254\034>,^\323>o\314\272=\330!\371>\323\302\001?[\221\344\277\243u\324;b\350\371=FL[>\264\376]>\317x\265>\220d\020\277\266u \277\320\212\345>\231.\021>a\307\322>P\337\035?J\353)>\232\342\336\275y\302\232=\254\016\305>\212p\314>\252C\177>\370\212\327=\312\177\305=\357\303h>\341\265\250\277\340\232\256\276?\265\271\276\311\020\244>\014\200\214\276u\351P?`\370\274\276\256\326U?\362\032\233\276%\227\237\275\351\022\217\277j\327\243?Jk\273=Q\035\256?\257@[?g\274\270\275\336\265\005\277Y\313[?\230\341\001\2777Z\221\276y\372~?\024\373\254\276\tJ\235\277\251F\302\277\004K\022?\227\024\025?.\240l\276\227\227\022\277\0028\201\275\036\345\201?\255,8\277\262I\034@\234\337\214\277\211\210\303>@\036\217\277\343,\371?\313v\025?\242A\217\276C\212\345\276\340\240\374=\214\247\365\276oR\217\277\301\333\376\275L\205^\277\035\247\375\276\334\227L\277nh\270\277\267\266\237\274\303{I\277A\227@\277\375\367\354\276\242\321X?\375\200\305<\263\337\243>\236o\013\277\307\316\363>\361I&>\260\351\007>\354\261\220\276\343\214\236\276\343\267\231\276\250\331V\277\272j\023\276\352Fp\277\034\360\242?d\326\253\275W\362,?O\006}\276}\255R\275\226I\274=o\266W\277Z\275J?\310N>>\2074\343\277I\t\227\277\n\006\257\276\356\266\010\277\2335\347>+\311\255\275\303\316\n\277\006\000V?AOW\276.$\376>m/\315?\312\0307\2776\265M>\354g\t>\360\231,?\223\275\302\275`\177\315>\035*\200\277\264\031\'\275\373\224\255\275\222\272X?\234\271\262>r\014\177>\322\'\005\277c\033;\277\332\260\007\277\270n\325?\244\344\344><i\205\276\037B!>\272\332\264>\344\240c;\343$\022?[\227H?qg.\277\206TM?\007u\263=\254\337\363\276h=\242\276\315\251\177\276\346\333,\277@`+>A\321\032\2775\357\252\276\261Bf?K\327\210<\310T\254\277\227\325M\276\254z ?Y\261M?\347\267\260>\347[\246\277\021\214\014>\304j\336\275\021\244)?\301\240\023\300\373\222\277>ED\214\276\261TZ=j\221\243>\233r\235\277\213\023%\276\303\222$?\027\253\224>\330h#\277\377\016F?\311\024X@G\035h\277\335oe\277\0048(\277\210\236b\277f\256\274\276\267G-\277?\021\247\277\345\306R?Ct\253\2777\362:?^\275\241\277\205\362\277=Z\235\030><\325!=\'\217\r\277\326\032v?\334\210\216\277S(%\276\010\303\322><\225\262?b\377\021\277\225\235j>\200\215\232>\364\262\366\276\341\3641?\201\177\036?\306\021E?\236-\202\276te\250\277O=\236\276\244\0211?\354\353\270=q\350M?\346\235T\276\253\331\010\275p\313\347\275\024\361\225>2\316\010>\361\341\024\275U\377!?\033\337K?n\253\223\277S\231\000\277v[\326??\231$\277\311*\226\275l\026-\275\304\n\016\277\230_4?\207\000u\275O\361\324\2755\361I\276{T\366\275\3036\302\275\345p,\277$\323#\276{T\366\275\207\000u\275\311*\226\275]\321\020\276\316\215\255\275\316\215\255\275\000\256\350\276\311*\226\275Q6\346\275O\361\324\275{T\366\275\3036\302\275Q6\346\275\3036\302\275\3036\302\275{T\366\275\234\270\035\276\316\215\255\275~~\264\276O\361\324\275\316\215\255\275\316\215\255\275\311*\226\275O\361\324\275\253q:\276\3036\302\275\3036\302\275\370\306\217\276Q6\346\275\311*\226\275\207\000u\275\376w<A\311*\226\275\316\215\255\275\243c\236\277+\0065\276\311*\226\275{T\366\275\207\000u\275\352\363\t\276\311*\226\275\207\000u\275\316\215\255\275\311*\226\275\316\215\255\275\207\000u\275\316\215\255\275\3036\302\275\3036\302\275\316\215\255\275\311*\226\275\311*\226\275j\024\204\276O\361\324\275S\251\307@\3036\302\275\207\000u\275\316\215\255\275Q6\346\275L\200c@+\0065\276l\026-\275\014\365\213\276\316\215\255\275]\321\020\276{T\366\275l\026-\275O\361\324\275\311*\226\275\234\270\035\276O\361\324\275\227\240\234\276\\\340\215\276\3036\302\275O\361\324\275\207\000u\275\234\270\035\276\311*\226\275\261T:@;\033\355@\316\215\255\275\316\215\255\275\361\272)\276\3036\302\275O\361\324\275\316\215\255\275Q6\346\275l\026-\275\316\215\255\275\352\363\t\276{T\366\275l\026-\2754\301\002\276\340\272?\276\311*\226\275\316\215\255\275\352\363\t\276\234\270\035\276\361\272)\276\311*\226\275\311*\226\275\311*\226\275Q6\346\275\316\215\255\2754\301\002\276\261\221a\277\316\215\255\275\3036\302\275O\361\324\275Q6\346\275\311*\226\275\3036\302\275+u/\276\311*\226\275]\321\020\276\361\272)\276\3036\302\275\3036\302\275\3036\302\275p\331\332>.i=\276\340\234\215>\261\217\037>\355\033\373>r7\245>_\330\230>\312\3226>e\336<\276\327D}\276\006\263\351?\320\203\342\275\032\242\202?P\245}\273\260\363\277\277\260\325\223\277\320\0133>\036\030B\276\330!\371>.\333\336>V\2250>P\240\323=r:\236\275\313*\367>`N\337>R\247\034\274Y\251\240>\364\235\342>\370\030_>\211\013\232\277\r\216\000@\267\346@\276C\353&>\265s\232=\262\357j?Gk\335>\230`\273\276\214\000\'\275\343\222\331=E\335\223>\245h\250>`\224\375=\316\365\236\275\231(\374?\354\346R\276;\315\211\277\315\317\330>\021\302\021?\332wh\276`N\337>\263I\035?\361\023\346>\322Y\327>\223\314 >\330\202_>\225J\211\275\030\226\361>\214z\366=\316\254\034>,^\323>o\314\272=\330!\371>\323\302\001?\351\005\001?\243u\324;b\350\371=FL[>\264\376]>\317x\265>\332\331=?\022\2672?\320\212\345>\231.\021>< \252\277\220A\261\277J\353)>\232\342\336\275y\302\232=\254\016\305>\212p\314>\252C\177>\370\212\327=\312\177\305=\334u\030@K\236\374?FI&@\312\037(@\362r\037\300\337%\003>\247\002\321\277\251y\300\276\350Z\260\276\000\252 =\314)\251>\304\216\n\2771\222i?>E\327\277\331\3052>T\360\262?\345\225\316?\304\256\304?N\372\254?\234\216\365??\325l?\303\367&?\352s\253?\321\214\021@\312Y\005@\331\024\350\277\r@Z\277~U\006\300\272#\001@\211*\t\300Zp\200?\212e\005@\006\260\322>`\274\302\276\3558\265\274C\013\306\277\327\226\305\276\307d9?Y\025&\300SC\247\277\325T\241\277\374U`>(\037\031>o\014\375\277\375My\276\252M\247\277UJ\202?l>3\276\336\276\333\277M\344y\277\002\3576\277\272\332\230\277\256&#@y\224\014>t\313+\3004\247\204>\236m\214=\030*\230\276|\330\212?\303*\317\276\347e\023\277#\204\002\300OD\270\277\214%g\276l\365\276>\325\005v\276o(\005\277\235\267\337?MG\304\275qN\003\300L\275X\277 nJ?n\210\362\277\346\212\205\273\257\221\363?\212\324\303?A\2608@\201d,\275\356M\212\276\003:\325>\263\nF\277\002\342\351\277|\210\014?Y\327\r\300\367n\301\277\236\257{?;\\\\=3\3314?/\264\023?v\260\261?\005\023\265\277C\360^@!k\370\276<>\241=?\001\351\277\360\342\000?\001\020\372\277+u\252\277E4\344?\247\271+\276\221\334\362>r\033\347\277>!D\276\005\177\214\277]\213\240?n\200\345\277\032\221\365\276O3\r\277M\017N\276\216 \304\276UYI?\232f\247\276\270\037\202\276A\\{?\276\257\332\276\352\377E\277\245\362N@P-\333?\213\324\340?\010\033\336\277\262C\370\275\016\347\240?\241\373\265\277\036\302\300\277E<\314?\310\221\017\277q-\253>\323\261\020\277+\234\246>h\206\200\277\377\013\317\276h\034\222?\222\356\327>\351\200\237?o\234\255\275\227\031\037@\230S\307\277f\024\253?\302x\343\274\275\375\341\277V\313\253?\002\274\332?\213VY?y\316\033\300\336\212\252?!\"/\277\200\346\026@\225\372i>\316\215\245=\266L\202\277\244}N\276\220\010\333?l\202\334>,\227\231>\251\317\346>\256\314\330>\022?q\276\271\316\210\276\321o\277?\206\3442\277\352\273\263>$\003\032\300\244@~\277\245J\221>\255>|?\031\357=?\207O;\275\241qW?@\236\266?\372\275\321?\355\272:>ME\205\276e\335\357\277\260\342a\277_\000\014@\362H\340\277?j\204\277\234XB\277\310\352\373\277\031V\300\274{\320O?\211\331\363>%\201]?S\231\000\277v[\326??\231$\277\311*\226\275l\026-\275\304\n\016\277\230_4?\207\000u\275O\361\324\2755\361I\276{T\366\275\3036\302\275\345p,\277$\323#\276{T\366\275\207\000u\275\311*\226\275]\321\020\276\316\215\255\275\316\215\255\275\000\256\350\276\311*\226\275Q6\346\275O\361\324\275{T\366\275\3036\302\275Q6\346\275\3036\302\275\3036\302\275{T\366\275\234\270\035\276\316\215\255\275~~\264\276O\361\324\275\316\215\255\275\316\215\255\275\311*\226\275O\361\324\275\253q:\276\3036\302\275\3036\302\275\370\306\217\276Q6\346\275\311*\226\275\207\000u\275\316\215\255\275\311*\226\275\316\215\255\275\243c\236\277+\0065\276\311*\226\275{T\366\275\207\000u\275\352\363\t\276\311*\226\275\207\000u\275\316\215\255\275\311*\226\275\316\215\255\275\207\000u\275\316\215\255\275\3036\302\275\3036\302\275\316\215\255\275\311*\226\275\311*\226\275j\024\204\276O\361\324\275$\323#\276\3036\302\275\207\000u\275\316\215\255\275Q6\346\275\370\306\217\276+\0065\276l\026-\275\014\365\213\276\316\215\255\275]\321\020\276{T\366\275l\026-\275O\361\324\275\311*\226\275\234\270\035\276O\361\324\275\227\240\234\276\226\214f@\3036\302\275O\361\324\275\207\000u\275\234\270\035\276\311*\226\275\223\213\257\276\352\363\t\276\316\215\255\275\316\215\255\275\361\272)\276\3036\302\275O\361\324\275\316\215\255\275\206\025\016Al\026-\275\316\215\255\275\352\363\t\276\212\311\004Al\026-\2754\301\002\276\340\272?\276\311*\226\275\316\215\255\275\352\363\t\276\234\270\035\276\361\272)\276\311*\226\275\311*\226\275\311*\226\275Q6\346\275\316\215\255\2754\301\002\276\261\221a\277\316\215\255\275\3036\302\275O\361\324\275Q6\346\275\311*\226\275\3036\302\275+u/\276\311*\226\275]\321\020\276\361\272)\276\3036\302\275\3036\302\275\3036\302\275p\331\332>.i=\276\340\234\215>\261\217\037>\355\033\373>r7\245>_\330\230>\312\3226>e\336<\276\327D}\276\006\263\351?\320\203\342\275\032\242\202?P\245}\273\365\315\262\276\350\021\003?\306\003\n\300\036\030B\276\330!\371>.\333\336>V\2250>P\240\323=r:\236\275\313*\367>`N\337>R\247\034\274Y\251\240>\364\235\342>\370\030_>\211\013\232\277\r\216\000@\267\346@\276C\353&>\265s\232=\262\357j?Gk\335>\230`\273\276\214\000\'\275\343\222\331=E\335\223>\245h\250>`\224\375=\316\365\236\275\231(\374?\354\346R\276;\315\211\277\315\317\330>\021\302\021?\001\013\353\277`N\337>\263I\035?\361\023\346>\322Y\327>\223\314 >\330\202_>\225J\211\275\030\226\361>\214z\366=\316\254\034>,^\323>o\314\272=\330!\371>\323\302\001?\351\005\001?\243u\324;b\350\371=FL[>\264\376]>\317x\265>\313x\236?g\327\231?r^p\300&g\261\300\'=\361\277\202\202\001\300J\353)>\232\342\336\275y\302\232=\254\016\305>\212p\314>\252C\177>\370\212\327=\312\177\305=\217I\240?]\031\245?\340\232\256\276?\265\271\276\311\020\244>N\325\352\276\034\037\225\277\336D0>z\3205\277\2322\271\276\021\204\202\276\ro\001\277\247%\023?}\211e\277\253-\244\276\033\000\361\275\275\r\"\277\032kv?\210\245\256?\205\247\342>\215\252@?\331\010\302?^SR?\362\001:?i\2743?\320\221\227\277\222\220\351=\374\200\202\277FqS<\221\336\205\277\264\251\237\276\021A\264?\344\036\024?A=\253>D\007\275\277\250r\021=\234\314\227\276\256\312g?>y\030\277\027\022\002>\304j\312\277\3365\362>Ym\227?\306\317`\277/!\200?\316\222\315\276\t.\005\277P\341\017\276n99\277o/4\277Q\255D=\033OE?\362,h?\224\207\205\277\034\201\035>\256*\006?\314\217I\276\265\240\231\277\340\324\035@\371\243+@\342\271\364?JR`\277\373\350\345=\262\270\030?\314\266u\276W\267\245>\np\277\277\324g\213\275\22365\275\372\320\311\277t\323\270\276\276\312\273?m2v\277\375*\217>\245`\320<7\017]\276%\217\\?\245\2237@\356\336/\277\2174\004\277\003\344\355=\244\371\241\277}\250\233?\337\377&\277\250s\205\277?\177\005?\266p\371>\216=\203>\310\3614>\326\003\351\276\021\266\261\275\0066p\276\032\351\247\276\035/\212\277dX_\276E\006\326>M\247\204\277\234,\335\275\361{\351\276`\3775?g\200Z?C\275\320=d\035\200\275*!\361? e}\277}\233\035>\316\3269\275~\340\'>\224\347#?)rx\277V\031\272\277\242`\313<5\316\'\276\370\3014\276L\3372\277@\243M\277$\271V;7\217\200?`\013&?b7$\277\357\246\250?=\217\004>\007\252\"\275\272\020\363\277y\376Z>\363\224\234\277LJa?\321\347\262\276\023\245\341\276lF\221\276\264nh?\273\032\342\276\260\r5\276Nx\370\277\345\210\273>\356\202W?K\223 @g1\374?*\246\256?\016G\311\277B%x\277\375\020T>\033\342B>c\237\007=\306\226\">\326\364\035?\306\372\342?\274\022\255?\211\031?=sVK\27508\031>\203\257\206\277\260.\206\275\340\221l\273\371\303\305\276S]:?Q-\343?\337\304\346?\202\233U?\320J\327\276\013\352\253\276\240\222u\276[\322\236\276=\020\202\276#\363@?\005\233R?Yd\035?\216S$?\255!\255>\220aT\275o\0172\300\270p\277\276\tP\373\274\215\016\331\276i\367Y\273eZ\354\277\337\326\020\277 \\\252<\354q\243\276\305\214\261\276\215z\265\277\224\007\177\277n\253\223\277S\231\000\277v[\326??\231$\277\311*\226\275l\026-\275\304\n\016\277\332W\265\277\207\000u\275O\361\324\2755\361I\276{T\366\275\3036\302\275\345p,\277$\323#\276{T\366\275\207\000u\275\311*\226\275]\321\020\276\316\215\255\275\316\215\255\275\000\256\350\276\311*\226\275Q6\346\275O\361\324\275{T\366\275\3036\302\275Q6\346\275\3036\302\275\3036\302\275{T\366\275\234\270\035\276\316\215\255\275~~\264\276O\361\324\275\316\215\255\275\316\215\255\275\311*\226\275O\361\324\275\253q:\276\3036\302\275\3036\302\275\370\306\217\276Q6\346\275\311*\226\275\207\000u\275\316\215\255\275\311*\226\275\316\215\255\275\243c\236\277+\0065\276\311*\226\275{T\366\275\207\000u\275\352\363\t\276\311*\226\275\207\000u\275\316\215\255\275\311*\226\275\316\215\255\275\207\000u\275\316\215\255\275\3036\302\275\3036\302\275\316\215\255\275\311*\226\275\311*\226\275j\024\204\276O\361\324\275$\323#\276\3036\302\275\207\000u\275\316\215\255\275Q6\346\275\370\306\217\276+\0065\276l\026-\275\014\365\213\276\316\215\255\275]\321\020\276{T\366\275l\026-\275O\361\324\275\311*\226\275\234\270\035\276O\361\324\275\227\240\234\276\\\340\215\276\3036\302\275O\361\324\275\207\000u\275\234\270\035\276\311*\226\275\223\213\257\276\352\363\t\276\316\215\255\275\316\215\255\275\361\272)\276\3036\302\275O\361\324\275\316\215\255\275Q6\346\275l\026-\275\316\215\255\275\352\363\t\276{T\366\275l\026-\2754\301\002\276\340\272?\276\311*\226\275\316\215\255\275\352\363\t\276\234\270\035\276\361\272)\276\311*\226\275\311*\226\275\311*\226\275Q6\346\275\316\215\255\2754\301\002\276\261\221a\277\316\215\255\275\3036\302\275O\361\324\275Q6\346\275\311*\226\275\3036\302\275+u/\276\311*\226\275]\321\020\276\361\272)\276\3036\302\275\3036\302\275\3036\302\275p\331\332>.i=\276\340\234\215>\261\217\037>\355\033\373>r7\245>_\330\230>\312\3226>e\336<\276\327D}\276\001\365\234>\320\203\342\275\0135K\277P\245}\273k\031M?\350\021\003?\320\0133>\036\030B\276\330!\371>.\333\336>V\2250>P\240\323=r:\236\275\313*\367>`N\337>R\247\034\274Y\251\240>\364\235\342>\370\030_>.\213\221>o\261\r?\267\346@\276C\353&>\265s\232=\266\026V\277Gk\335>\230`\273\276\214\000\'\275\343\222\331=E\335\223>\245h\250>`\224\375=\316\365\236\275\302}\n?\354\346R\276S\0339?\315\317\330>\021\302\021?\332wh\276`N\337>\263I\035?\361\023\346>\322Y\327>\223\314 >\330\202_>\225J\211\275\030\226\361>\214z\366=\316\254\034>,^\323>o\314\272=\330!\371>\323\302\001?\351\005\001?\243u\324;b\350\371=FL[>\264\376]>\317x\265>\220d\020\277\266u \277\320\212\345>\231.\021>a\307\322>P\337\035?J\353)>\232\342\336\275y\302\232=\254\016\305>\212p\314>\252C\177>\370\212\327=\312\177\305=\005\263\215\276\243\257\272>\340\232\256\276?\265\271\276\311\020\244>l\206]\277\246\256\355\275\3107\350;$\212\206\277\311e\257\277{2\267\275\025\323P\277\337\323\261\277\240\035K\277\365\324\246\277V\340\241\277\341\033\267?\206W\006?\374\315\364\277\314\003\226?\373\263\r\300\236\016\334\277\330aK\277\000\313.?\311c\337>\353\231G@\017FN\277\250;\263>\262\034J>i6\361\276-\257\303\277\322<\335?:\210\"?\3347\367\277_1\343=\224\353I\277\206M!\277F\265\021\300\225\024\244\276\355}0\276\320\346\356\276\002\214\020?\244\037\323\276\325\350N\277\223z\014\277\202\023=>b\336\036?Q~\272>i\330\226\274\261\247A\277\030\031_?\332#\314\276_\2214@\021\314\331\277S\013\355\276\003\024/@@b\253\277n\244p\277$\027\321\2751\024`\276\2532H\276\266\200!\277*t\262\277\344\216l?\311\305W\277\242\010\306\275DB\340=\221\352\215?\273\002\215\277<\311\200\277V=\005?\235(\202?\211\202V\277\374\016\315\276Ed7>\276\343\243>\023\265%@\352,\211>\3437\307\275q\311q\277\"\032\334\276m\304#?K\326\275\277\330\220\316\277U_\227>\202\n\'\276\342\315\263\277b\304\\?\211\376\273?\317\310\032@\330\207^\277\242\025\242??A\244\2774\005E\2774$a\275V>\201?\004\361\222\276\302\263\010\277c\201\020@\360\301\332\277\'\355\271?\255\326K\277\330Ok=I\305)\277\007\207\305?\226\316\232\277\376\257\275\276@\265\324?ZvD?\373V\250?\275\340F?\026\373\330?\211\346\361?\363\346A@\306,??S\240\315\276C\323*?G\333\231@\267U\036\277\230W\256>x+\231?l\311\022\300i\'\033\275\274@W?\361-\250\277\032\233\345\276O\300-\300\304\024\261\277w\346\322\276\003\347\223?v\355\342\277\250\236p\273\327\242\244>\177q\367\277j\013\202?&\314\224?\332\005D?\277&\230?\302\232\315\277C\307\026?\016\034\223>\233\014\220?,\234\024?\335\330\000=P\302\376\276A\016\353?\014\220\272\277\037\206\r\277\031\303\375<x\003O>\310\nK\277\t\202\367>\376;\374?\224Di\277w!\341?2\036\014@\205\370-\276?\033\357\2766b\236>\370\240\242\276\276\333S?\224\033\207\276\353\331c\277\224\253&?\223\2472\277E\333\276\276\271a\253?\204\347:?\375\341\344\277\350\255\372\276\372x\375<\332\210\222\276\221\243\027\277\331c\r\275K\225\002@;\2230\276L\274\206?\023p*>\271y.\277\311\320\021@\016\374G\275\336J\262>%\201]?S\231\000\277\343\227\030\277?\231$\277\311*\226\275l\026-\275\301G\346?\230_4?\207\000u\275O\361\324\2755\361I\276{T\366\275\3036\302\275\345p,\277$\323#\276{T\366\275\207\000u\275\311*\226\275]\321\020\276\316\215\255\275\316\215\255\275\000\256\350\276\311*\226\275Q6\346\275O\361\324\275{T\366\275\3036\302\275Q6\346\275\3036\302\275\3036\302\275{T\366\275[c\317@\316\215\255\275~~\264\276O\361\324\275\316\215\255\275\316\215\255\275\311*\226\275O\361\324\275\253q:\276\3036\302\275\3036\302\275\370\306\217\276Q6\346\275\311*\226\275\207\000u\275\316\215\255\275\311*\226\275\316\215\255\275\243c\236\277+\0065\276\311*\226\275\212\311\004A\207\000u\275\352\363\t\276\311*\226\275\207\000u\275\316\215\255\275\311*\226\275\316\215\255\275\207\000u\275\316\215\255\275\3036\302\275\3036\302\275\316\215\255\275\311*\226\275\311*\226\275j\024\204\276O\361\324\275$\323#\276\3036\302\275\207\000u\275\316\215\255\275Q6\346\275\370\306\217\276+\0065\276l\026-\275\014\365\213\276\316\215\255\275]\321\020\276{T\366\275l\026-\275O\361\324\275\311*\226\275\234\270\035\276O\361\324\275\227\240\234\276\\\340\215\276\3036\302\275O\361\324\275\207\000u\275\234\270\035\276\311*\226\275\261T:@\352\363\t\276\316\215\255\275\316\215\255\275\361\272)\276\3036\302\275O\361\324\275\316\215\255\275Q6\346\275l\026-\275\316\215\255\275\352\363\t\276{T\366\275l\026-\2754\301\002\276\340\272?\276\311*\226\275\316\215\255\275\352\363\t\276\234\270\035\276\361\272)\276\311*\226\275\311*\226\275\311*\226\275Q6\346\275\316\215\255\2754\301\002\276;\002\221?\316\215\255\275\3036\302\275O\361\324\275Q6\346\275\311*\226\275\3036\302\275+u/\276\311*\226\275]\321\020\276\361\272)\276\3036\302\275\3036\302\275\3036\302\275p\331\332>.i=\276\340\234\215>\261\217\037>\355\033\373>r7\245>_\330\230>\312\3226>e\336<\276\327D}\276\006\263\351?\320\203\342\275\032\242\202?P\245}\273\260\363\277\277\350\021\003?\320\0133>\036\030B\276\330!\371>.\333\336>V\2250>P\240\323=r:\236\275\313*\367>`N\337>R\247\034\274Y\251\240>\364\235\342>\370\030_>\211\013\232\277o\261\r?\267\346@\276C\353&>\265s\232=\262\357j?Gk\335>\230`\273\276\214\000\'\275\343\222\331=E\335\223>\245h\250>8\3720\300\316\365\236\275\231(\374?\354\346R\276;\315\211\277\315\317\330>\021\302\021?\332wh\276`N\337>\263I\035?\361\023\346>\322Y\327>\223\314 >\330\202_>\225J\211\275\030\226\361>\214z\366=\316\254\034>,^\323>o\314\272=\330!\371>\323\302\001?\351\005\001?\243u\324;b\350\371=FL[>\264\376]>\317x\265>P\323\032??,\017?\320\212\345>\231.\021>I(\221\277L\214\224\277J\353)>\232\342\336\275y\302\232=\254\016\305>\212p\314>\252C\177>\370\212\327=\312\177\305=\272\344\332?\361\217\310?\340\232\256\276?\265\271\276\311\020\244>\371\362_\277\336\213\027?V\274\252?\207\243\332?\302\337\225\277\327\230\017@\262/5?j\255\006\277\205\336\271\277\303\341\243\300j{\215\300-\307*\300\352E/\300\353\364x\300\200\341\304\277e\330\007\300\275\373\230\300d|9\300dye\277\302\033\316?\267\330=\300\201\022\356\277\325\006\216\3002b\223?\275;\212>^\014\362\277\224\323\035@\\j,\277\344\023L?\200\351\241?n\217f?t6\232?SG\361\277\251\256\024?\220N\362?W\352a@u\324\234\276\312\222:@\271\312\031@\353d;?M\270\035?\215Y\014\277\366%?\276\376\343\320>\347\306~@\014\014\007?G\026\346?\224Nw>\331\330\203<\254~\\\275}\333m?\031S\244?/\316i?Y\356\006?z)\242\276\306i\360\272;\346=?]\347\272\276\224e<\300\347.5@\013*\215\3003\345\242\276;%\262\277\244\263N@\026\\\205?\261\347.\277s|v\300\213Ud?}\035Y\300\215\003\364\277\367\331\273\277\307\204\330?\356\351Y\276\267(\303\275\311\0042\277\305m\203>\\\330\010\276#\214\366?#\263\001?f\260;=\211\2111\300\264~\357\277\330\010\023\300r\270%?B\334\006\300`\374\234\277\277=\020\300\367\246j?\362\r\220\277\3418\030?\236\366\350>\216H\264\277N\350\306>.\345J\277\267q\241?8x%@?\032\230>\340,\240\276b\357\277\276\301a\007@R\354&\300vu\206\300\232\024\234?L?(@\346\314\207\300\t\001i>s\000\362\277\205\2133\300\267\324\020>&-\365\2774\351=@\307\376\262?\207xi?< s\300\213\350\357\275\315 \264\277\314.Y\277\032oT@\320li\277\2376\260\277\2460Z>K\326O\300\\f\374>`4\007\3001\304s?\333\240M\277\377\027\022?\210@\212?\316<\246\276\237\237\025\300V4\035\300Z\177G\277\324--\300\271\020\325\277s+1?\364\027\301\277}\273\336\2774\347g\300\225\370\013@b\315\262\277\322\264\364?f\307 \276\236\255\201\276\034\003\004\300\273\246\217@MJ`\300\270\371\003\300\026\355\026?\270\013\242?\214\330V@\352\327\177?\347R3@\364aB\277|V\027\300P\002t@\363>X\2761\211\220?\\\347\325?/\177\316\277\345\033R\276\027MR\277E%P\277P\\\245>\232-\324\300\256\267y\277\022\237\202?\375#\305>\037z\027@,\244\216@\3679\206\277\326\272\377>\314Q\t@\242=J\276@+\242\277\357\025~\300NN}\277\305\027+?n\253\223\277S\231\000\277\343\227\030\277?\231$\277\311*\226\275l\026-\275\301G\346?\230_4?\207\000u\275O\361\324\2755\361I\276{T\366\275\3036\302\275\345p,\277$\323#\276{T\366\275\207\000u\275\311*\226\275]\321\020\276\316\215\255\275\316\215\255\275\000\256\350\276\311*\226\275Q6\346\275O\361\324\275{T\366\275\3036\302\275Q6\346\275\3036\302\275\3036\302\275{T\366\275\234\270\035\276\316\215\255\275~~\264\276O\361\324\275\316\215\255\275\316\215\255\275\311*\226\275O\361\324\275\253q:\276\3036\302\275\3036\302\275\370\306\217\276Q6\346\275\311*\226\275\207\000u\275\316\215\255\275\311*\226\275\316\215\255\275\243c\236\277+\0065\276\311*\226\275{T\366\275\207\000u\275\352\363\t\276\311*\226\275\207\000u\275\316\215\255\275\311*\226\275\316\215\255\275\207\000u\275\316\215\255\275\3036\302\275\3036\302\275\316\215\255\275\311*\226\275\311*\226\275j\024\204\276O\361\324\275$\323#\276\3036\302\275\207\000u\275\316\215\255\275Q6\346\275\370\306\217\276+\0065\276l\026-\275\014\365\213\276\316\215\255\275]\321\020\276{T\366\275l\026-\275O\361\324\275\311*\226\275\234\270\035\276O\361\324\275\227\240\234\276\\\340\215\276\3036\302\275O\361\324\275\207\000u\275\234\270\035\276\311*\226\275\223\213\257\276\352\363\t\276\316\215\255\275\316\215\255\275\361\272)\276\3036\302\275O\361\324\275\316\215\255\275Q6\346\275l\026-\275\316\215\255\275\352\363\t\276{T\366\275l\026-\2754\301\002\276\340\272?\276\311*\226\275\316\215\255\275\352\363\t\276\234\270\035\276\361\272)\276\311*\226\275\311*\226\275\311*\226\275Q6\346\275\316\215\255\2754\301\002\276\261\221a\277\316\215\255\275\3036\302\275O\361\324\275Q6\346\275\311*\226\275\3036\302\275+u/\276\311*\226\275]\321\020\276\361\272)\276\3036\302\275\3036\302\275\3036\302\275\317\014\326\277.i=\276\340\234\215>\261\217\037>\232;\330\277r7\245>_\330\230>\312\3226>e\336<\276\302\301\300?\006\263\351?\320\203\342\275\032\242\202?P\245}\273\260\363\277\277\350\021\003?\320\0133>\036\030B\276\316\027\320\277.\333\336>V\2250>P\240\323=r:\236\275\236s\316\277>\352\361\277R\247\034\274Y\251\240>\353\202\326\277\370\030_>\211\013\232\277o\261\r?\267\346@\276C\353&>\265s\232=\262\357j?Gk\335>\230`\273\276\214\000\'\275\343\222\331=E\335\223>\245h\250>`\224\375=\316\365\236\275\302}\n?\354\346R\276;\315\211\277\315\317\330>\021\302\021?\332wh\276>\352\361\277\263I\035?\361\023\346>\036\253\364\277\223\314 >\330\202_>\225J\211\275\032.\322\277\214z\366=\316\254\034>,^\323>o\314\272=\316\027\320\277\302^\322\277\351\005\001?\243u\324;b\350\371=FL[>\264\376]>\317x\265>Q\344u?0\225k?\346$\023\300\231.\021>\235o\341\277\225\331\360\277J\353)>\232\342\336\275y\302\232=\254\016\305>\270\332\033\300\252C\177>\370\212\327=\312\177\305=\226\351\036@\243\257\272>\340\232\256\276?\265\271\276\311\020\244>\302\350\001\277\235\014\215>\2678\233\276\207gZ\276\264y\361\276\357_F?\370F\266\277\205\357\010\276\207BR\277\030\001(\277\306+\231>jJ\335\276\212\360J\277\373\215\261>\227\203\032>\305\206\254?3\271\341>u\364\360>d\270\365\277\"\216\311\277sj\305?\022\315\317\275\356\344\234?\021\'+?\350\210\025\2778\024*?D\323W\2774({\277\033\237\355?3[\222\276&\013\200\277\231\322v\276X\303Q?a\255\316?\254\177z\277\317L\230?\220\205`\277\312\027\245>!wT\276\315,\025?n\017A=\357\344\301\275\237\220\t?\237J\243\277\211|+\277\362\251\230?I\206-?K\321J\276)\3413>\2353d\2768\353R\275\363\245\037\275\320\023\204>\3242\323?\343\331\257?\264\315\260?\304-\206\277f\340\306\276\323\347\224\273\220>\216\275\257G\226?\346\325W>\261\357\212?\322e\004>\321\266\260?)N\276\277W0\246?T\336c\277\272\241\026\275?A\340\276\022\006\365\276\030s\357>\3038x?\321\302\252?\366\235\261\276O1\223\277\335\200\305?c\350\207?\265\332\230\276<y\317\277of\017>7\313\226?\245j\022?\370\243w\277\272\027\256\277$\354\346\276\344\233\006\300\242\342\236?*\202\242\276PI\363\276!=\227\277\0269\227\276@V\306\276\353D\002@\021\323\261?\000\352\301?\371\355\004@\024F\303?,7\005\300\355\326\240\276\226\312\212\277\363\371L\277\355\357L\2778=B\277\222\030\251\274\'\363\362\276\376\\\336\274\273\332\327\276\'\372\307\276\016\333!\276\377.\007?\327\177\205\275}\003L>\337S\262\275 \271G>\376\240\'@\265?\303?O~\034\277\250\213\205?8M\365>!\351\005\277\303\003\265?\2313\022?\304\376@>\362\207\311=\317\236\216\276\361\356\273\277AH\205\277J;\276>X\370O\276\035\242C\277R|r=\344v->\273\266\301>h\230\302=\002\326\205\277\327\322U?\244\324\037\277\010\226\207\277\362\374\262\277:\306F>\343\231\241?1L\311\276\001S\342=\271^\031\300\213\352G>t\237\016>,\264(\276>R\251>>\353\374=\344\355\233\277P\022}?\206\225*\3006\255\237\2760T#\276\216w\223\276\255\r\362\276\322\005t\276\3764\363\277vCI?Y\030@?\364\336.\276\377\327\234?7b\'?\345\013\021\277R\002#?\275*\263\277\031|\323\276K\306\207\277\247\001\001?\243<\010\277P\t\274\276\361\257X?\036\022\232\277Gc\205\277<6W?\270\350\216?n\253\223\277S\231\000\277\343\227\030\277?\231$\277\311*\226\275l\026-\275\301G\346?\230_4?\207\000u\275O\361\324\2755\361I\276{T\366\275\3036\302\275\345p,\277$\323#\276{T\366\275\207\000u\275\311*\226\275]\321\020\276\316\215\255\275\316\215\255\275\000\256\350\276\311*\226\275Q6\346\275O\361\324\275{T\366\275\3036\302\275Q6\346\275\3036\302\275\3036\302\275{T\366\275\234\270\035\276\316\215\255\275~~\264\276O\361\324\275\316\215\255\275\316\215\255\275\311*\226\275O\361\324\275\253q:\276\3036\302\275\3036\302\275\370\306\217\276Q6\346\275\311*\226\275\207\000u\275\316\215\255\275\311*\226\275\316\215\255\275\243c\236\277+\0065\276\311*\226\275{T\366\275\207\000u\275\352\363\t\276\311*\226\275\207\000u\275\316\215\255\275\311*\226\275\316\215\255\275\207\000u\275\316\215\255\275\3036\302\275\3036\302\275\316\215\255\275\311*\226\275\311*\226\275j\024\204\276O\361\324\275$\323#\276\3036\302\275\207\000u\275\316\215\255\275Q6\346\275\370\306\217\276+\0065\276l\026-\275\014\365\213\276\316\215\255\275]\321\020\276{T\366\275l\026-\275O\361\324\275\311*\226\275\234\270\035\276O\361\324\275\227\240\234\276\226\214f@\3036\302\275O\361\324\275\207\000u\275\234\270\035\276\311*\226\275\261T:@\352\363\t\276\316\215\255\275\316\215\255\275\361\272)\276\3036\302\275O\361\324\275\316\215\255\275\206\025\016Al\026-\275\316\215\255\275\352\363\t\276{T\366\275l\026-\2754\301\002\276\340\272?\276\311*\226\275\316\215\255\275\352\363\t\276\234\270\035\276\361\272)\276\311*\226\275\311*\226\275\311*\226\275Q6\346\275\316\215\255\2754\301\002\276\261\221a\277\316\215\255\275\3036\302\275O\361\324\275Q6\346\275\311*\226\275\3036\302\275+u/\276\311*\226\275]\321\020\276\361\272)\276\3036\302\275\3036\302\275\3036\302\275p\331\332>.i=\276\340\234\215>\261\217\037>\355\033\373>\244\371\013\300_\330\230>\312\3226>e\336<\276\327D}\276\001\365\234>\320\203\342\275\032\242\202?P\245}\273\260\363\277\277\350\021\003?\320\0133>\036\030B\276\330!\371>.\333\336>V\2250>P\240\323=r:\236\275\313*\367>`N\337>R\247\034\274Y\251\240>\364\235\342>\016\007\000\300\211\013\232\277o\261\r?\267\346@\276C\353&>\265s\232=\262\357j?Gk\335>\230`\273\276\214\000\'\275\343\222\331=E\335\223>\'A\n\300`\224\375=\316\365\236\275\302}\n?\354\346R\276;\315\211\277\315\317\330>\021\302\021?\332wh\276`N\337>\263I\035?\361\023\346>\322Y\327>\223\314 >^m*@>\337\021@\030\226\361>\214z\366=\006\212\017@,^\323>o\314\272=\330!\371>\323\302\001?\351\005\001?\243u\324;b\350\371=FL[>\264\376]>\317x\265>\032\010y>j\365D>\320j\204=\374\255~?%\355\024=a\232=>J\353)>\232\342\336\275y\302\232=\254\016\305>\212p\314>N\357\014\300\370\212\327=\312\177\305=\005\263\215\276\243\257\272>\340\232\256\276?\265\271\276\311\020\244>\242\314E?\001\322\033>\001\267i?\241\335=\276\242n\311?\304\252\254?\271u\227=(V\006\277\315\212\271>,\2068?\363\005\253>\026\347\251=b\263\"?\027\371Y>\267=s\277\266\266\026?5;\366\275\210\003n?\264\264\023?Z\020\030?<\314\025>\003`\375?\214:G\277\344p\320\275\317\241\020?\261\204\202\276\217\024\253\27752X\277\033\346\001?\377P\216>\222\256L\276C;\237\277 \277\232>\262\361\177?\205X\027?\222QX\275+\343\262\277\345\371\014\277Z\215\303\276\312\270\206\276\'\nC=\036Px>\321kF\277\240q\262\276\216b\275\275\345H\370\276\201\261\315\277\363\001\370\275\334)\000?\304\353\031\275\3229\r\277x\341\220?\210M\035?\217\227\273\277\277g\237\277\204\313*\277\006\020\265\276\206`\024@\225\337\022>\365Mz\277\334\261\276>\313\263\220>1q\271\275$\253\220\277D\310*\277lrc\277\263\347\261\2732\2216\277\306\224\314?\375tF?m\243\246?%\355)\277?\t)\277\275\332\010?\231\340\017@\314a\305\276\206\370w?\236h\013\277 \3630@\236\374\240?\312\212u?\323\022\311\275\010\244\343?~\337\365\276\317!R\276\024\013\"@H{\227?\234\016\004@ZD\002?\242.1=\252\016\027\276\351\361:?\351\261=?\033\207\306\276\345\234\037\276T\255\257>c\300\316\277\221;\303\277SV\340\277\207k*\277\002\342\t@\323\264\023@r\353E\276\321\213\025=\017\202\023?\245\260\013?B\277\223?\250+x?%W\273?!\324\375?L\211\306>\274\274\243\275\260:\376\275\2038\200\276\035\254\212?\352\027^\277\260\201\251\276=\325\307\276\336XR?\206\010R\277\177pG\276\265\000\327>n\261\276?\014\007\026@\254\340W\276\205\300\230>\3177_\277\"\222h\277>(4>\037\346\031\277\242L|\276\346\257\344>iP\234\277\302\274[?`0\225\2778\266\260\276P\321\375\276h\007\344>\303S\205?\0268\\\276\001\214\003\276\025\317\271\277\262^?\2770\256\037?\376l\242?\231\207\006@\006>\305?\210\001K\2774l\375\276c`E\277O@\237\277\240\273\277\276\004\340}\277x;\032\275\313\010\221\277\360\323\005@g\330\241>\003\301,>\306 %?\265\034m\277US\313\276E\367\262\277Z\311\036\275P\256\\?\035\207\005?\013dH\276\341\276\241>\\\322\231?\226@4\2770\2612\277\305\322\237>\242w\220\277ZL\277>\300\214\315?\205\036\325?\n\320\014\276\240\340\270\277%\201]?LZ\376?\343\227\030\277?\231$\277\311*\226\275l\026-\275\304\n\016\277\230_4?\207\000u\275O\361\324\2755\361I\276{T\366\275\3036\302\275\345p,\277$\323#\276{T\366\275\207\000u\275\311*\226\275]\321\020\276\316\215\255\275\316\215\255\275\000\256\350\276\311*\226\275Q6\346\275O\361\324\275{T\366\275\3036\302\275Q6\346\275\3036\302\275\3036\302\275{T\366\275\234\270\035\276\316\215\255\275~~\264\276O\361\324\275\316\215\255\275\316\215\255\275\311*\226\275O\361\324\275\253q:\276\3036\302\275\3036\302\275\370\306\217\276Q6\346\275\311*\226\275\207\000u\275\316\215\255\275\311*\226\275\316\215\255\275k\203N?+\0065\276\311*\226\275{T\366\275\207\000u\275\352\363\t\276\311*\226\275\207\000u\275\316\215\255\275\311*\226\275\316\215\255\275\207\000u\275\316\215\255\275\3036\302\275\3036\302\275\316\215\255\275\311*\226\275\311*\226\275j\024\204\276O\361\324\275$\323#\276\3036\302\275\207\000u\275\316\215\255\275Q6\346\275\370\306\217\276+\0065\276l\026-\275\014\365\213\276\316\215\255\275]\321\020\276{T\366\275l\026-\275O\361\324\275\311*\226\275\234\270\035\276O\361\324\275\227\240\234\276\\\340\215\276\3036\302\275O\361\324\275\207\000u\275\234\270\035\276\311*\226\275\223\213\257\276\352\363\t\276\316\215\255\275\316\215\255\275\361\272)\276\3036\302\275O\361\324\275\316\215\255\275Q6\346\275l\026-\275\316\215\255\275\352\363\t\276{T\366\275l\026-\2754\301\002\276\340\272?\276\311*\226\275\316\215\255\275\352\363\t\276\234\270\035\276\361\272)\276\311*\226\275\311*\226\275\311*\226\275Q6\346\275\316\215\255\2754\301\002\276;\002\221?\316\215\255\275\3036\302\275O\361\324\275Q6\346\275\311*\226\275\3036\302\275+u/\276\311*\226\275]\321\020\276\361\272)\276\3036\302\275\3036\302\275\3036\302\275\317\014\326\277.i=\276\207\023\000\300\272T\363?\232;\330\277r7\245>_\330\230>\312\3226>e\336<\276|\t\000\300\001\365\234>\223[\324\277\0135K\277\321\365\n\300\365\315\262\276\350\021\003?\320\0133>\036\030B\276\316\027\320\277\363\205\346\277V\2250>P\240\323=r:\236\275\236s\316\277>\352\361\277R\247\034\274Y\251\240>\353\202\326\277-\352\033@.\213\221>W\325f\277\267\346@\276C\353&>G\304\367\277\266\026V\277\201\253\347\277\230`\273\276\214\000\'\275\343\222\331=E\335\223>\245h\250>`\224\375=\316\365\236\275\255Uc\277\354\346R\276S\0339?\274a\363\277\021\302\021?\332wh\276>\352\361\277\263I\035?\361\023\346>\036\253\364\277\223\314 >\003}\016\300\225J\211\275\032.\322\277\214z\366=\316\254\034>Z\373\344\277o\314\272=\316\027\320\277\302^\322\277\351\005\001?\243u\324;b\350\371=FL[>\306)\337?\3748\023\300\220d\020\277\266u \277\241\023\037\277\231.\021>a\307\322>P\337\035?J\353)>\232\342\336\275Ex\330?\254\016\305>}\257;\300\252C\177>\370\212\327=\312\177\305=\005\263\215\276\243\257\272>\340\232\256\276?\265\271\276\311\020\244>\004\237\216\277\200\321\201?\035f\224\277\277\214\327?\241\'\356\276*aa?B\255\203\2771\250D?z\351:>`1\324\275\330\365l\275\2139\241\275\201/\013\276\030_\216?8\344\205?\273\220\200?\250}\034?\367\270,\277\311-\023\277\031\246a\277\254\340v\276\0011\367=\271@+?3\336\256\275\321\'W\276\221\210\204?\020#\'\277(8\t\276\256l\214\274|$=\277(\373y\276\361<D\276\037\247#=\320j\234>\033\254!\277\211Q,?u\275r\2768\326\305>j\241\315\275\037\016\311>]\342\216\277?\364\213\277pW\351\274\037\353\326\276\014\335V\277*\205F\277\264e\360=\227I\345\277rh\255?\3064e\276\337\205\310\274^\006\266=\010Rq>/\310\r\277\323\316\370\276\031y\241\276\234Q\346>\203i\026?\265\351\212\277 DU\277\242\212\234\276\302\313V?\266\236\361=\304cN<\372\257\262=\372\211\311\276\254/\226\276\257\310\331=\257\372\363>\"\246l\277\253\'\372\276\231\037\274\276U\266\032\277\2331\217=H\354#\277&b#\276ni\240\276\205\034_\274,\245\337\276\256j\211?#\"\361\276\022~}?\356\307\236\277\'L\227\275\300\202\026?I\302\303\276\217\213\241\276\317:\320\276\254\265Q>\020\367\325>\227\275R\277\310N;>\250\313[\277_\301\234>\351x\350\275\3424\212\276!\335\n?`\205{=`L\001\277\320\251\326>\256e\030\277\213j\001\277\372\333\234\276\332\373Y\277\331.\247?^\317\372>+j\245>\324\220r>\271;\266\2769D\370\275S=\001?R\245\024\277&\362\266\275\272\323\035?\037L?\276\254\217W?A\306\263?H4>=\314\246\234>\375\006\226>\001\364\273\277P#\026\277\202UA\276\204h\032?\004y/=R{|?\026}%>\001\n\342\275\036\306\341?\253\242\227>-\034\300?2\016s\276k\023\261?x\320\330>\021r\226>\006\314\232=\230\037\347\276\313\220\222\277bt\016\277\243Vx?\002\275\222<\210\r4\277\334\341\177>\367\240\214>\202\303\315\277\001\214\353=\271E\000\277\236\346\036=\3121\320>\330\205\357\276\213\274I\277\2025\272?\200\327\353\276N\022\033\277\200i\266?\236\tS\277=#N>F\317\320\275\314_\211=\035\345\236;\222\031\275?\344\354\257?0p\217?\337\270\245\276\223\246\253\277\263\263!\276\334\264\226>\324&\\\277S\244\025\277V\322\035?\026+^>\177\207\256\275\306\020\216?c\336?\277\370\336)\277H\r\323?&\r\327\276n\253\223\277S\231\000\277\343\227\030\277\004\271\306?\311*\226\275l\026-\275\304\n\016\277\230_4?\207\000u\275O\361\324\2755\361I\276{T\366\275\3036\302\275b\257\275?$\323#\276{T\366\275\207\000u\275\311*\226\275\317\335\341@\316\215\255\275\316\215\255\275\000\256\350\276\311*\226\275Q6\346\275O\361\324\275{T\366\275\3036\302\275Q6\346\275\3036\302\275\3036\302\275{T\366\275\234\270\035\276\316\215\255\275~~\264\276O\361\324\275\316\215\255\275\316\215\255\275\311*\226\275O\361\324\275\253q:\276\3036\302\275\3036\302\275\370\306\217\276Q6\346\275\311*\226\275\207\000u\275\316\215\255\275\311*\226\275\316\215\255\275\243c\236\277\373\260\264@\311*\226\275{T\366\275\207\000u\275\352\363\t\276\311*\226\275\207\000u\275\316\215\255\275\311*\226\275\316\215\255\275\207\000u\275\316\215\255\275\3036\302\275\3036\302\275\316\215\255\275\311*\226\275\311*\226\275j\024\204\276O\361\324\275$\323#\276\3036\302\275\207\000u\275\316\215\255\275Q6\346\275\370\306\217\276+\0065\276l\026-\275\014\365\213\276\316\215\255\275]\321\020\276{T\366\275l\026-\275O\361\324\275\311*\226\275\234\270\035\276O\361\324\275\227\240\234\276\\\340\215\276\3036\302\275O\361\324\275\207\000u\275\234\270\035\276\311*\226\275\223\213\257\276\352\363\t\276\316\215\255\275\316\215\255\275\361\272)\276\3036\302\275O\361\324\275\316\215\255\275Q6\346\275l\026-\275\316\215\255\275\352\363\t\276{T\366\275l\026-\2754\301\002\276\340\272?\276\311*\226\275\316\215\255\275\352\363\t\276\234\270\035\276\361\272)\276\311*\226\275\311*\226\275\311*\226\275Q6\346\275\316\215\255\2754\301\002\276;\002\221?\316\215\255\275\3036\302\275O\361\324\275Q6\346\275\311*\226\275\3036\302\275+u/\276\311*\226\275]\321\020\276\361\272)\276\3036\302\275\3036\302\275\3036\302\275p\331\332>[d\331?\340\234\215>\261\217\037>\355\033\373>r7\245>\345~I\300\312\3226>\2448\335?\327D}\276\001\365\234>\320\203\342\275\0135K\277P\245}\273k\031M?\350\021\003?\320\0133>{\031\326?\330!\371>.\333\336>V\2250>P\240\323=\207*H@\313*\367>`N\337>R\247\034\274\314JF\300\364\235\342>\370\030_>.\213\221>\007\327\026\300\231\310\324?C\353&>\265s\232=\266\026V\277Gk\335>\230`\273\276\214\000\'\275\343\222\331=\033lG\300\245h\250>`\224\375=\214\027I@GJ\024\300\354\346R\276S\0339?\315\317\330>\021\302\021?\332wh\276`N\337>\263I\035?\361\023\346>\322Y\327>\223\314 >\330\202_>\225J\211\275\030\226\361>\214z\366=\316\254\034>,^\323>o\314\272=\330!\371>\323\302\001?\351\005\001?\243u\324;b\350\371=\247\330v\277\264\376]>\317x\265>\220d\020\277\266u \277\320\212\345>\231.\021>a\307\322>P\337\035?J\353)>\367\255\346>y\302\232=\254\016\305>\212p\314>\252C\177>\370\212\327=\312\177\305=\005\263\215\276\243\257\272>\340\232\256\276?\265\271\276\311\020\244>,*,@c\037\351\276y,)@\3002\205\277\220\376\341?\206\372C\277\371\213\373?\261r\252=\214\314\014\277\325\234\251=\310\257Z\277\322\252(\277\1770\373?\250\002K?\002\356\277\277\223\332\344\2766yu\277\315\245\207?\337\224\241\277\301\305\240\275\205\n\331\275\036\376\320?f\357\333\276\247f\010\277(\031P\277\213\204;\276\201o\203\276\'L8\277\257B\317?\3030\271?\365\017\006?\204\330\205\276d\356G?K2u\277\332\345\010?58\375\275\243\177v\277\021\206\317?\273w\301\276X\023M?KjE\277\021[\020\277>\251\340?gA\220\277?4\204>>q\273>\300\272*\277\355\033d\277n\367\253>\350\'3\277`P\233>\312\305%@\2709\210>\360o\030<\370b,\277\360T\336\275\230:\270\276,J\001?\t\244\023@\267#H@\317\345Q\277Z.\201\277U\"\274\2762\333\252\276\0040\032\277\354\354 \275\352\225\034?\352\t\213\276[\335\003@G\017\'\277\274^\215\277sb\344\276\037\032\035\277\247P\000\277\261\261]=HB`?he3?J\177\273>/a\221?a\332\357=\304\326]@Qo\266=\312I\010@\325\307\204?\246\357\253\276\036\004\022@\353\211\264\277[\366\271?\002\r/@\354\317\374\276Qw\366\275/G\202\277\371\210\251\277\222\002\003\277\337\236y\276\3353\010\2776\265#\277\326y\264\276\036`[\276:\2648\277\023{\240?T\245\224?\025;\025\276R\t\020@\005\007\216\277Y\330d\276\331@\005>\221\024W>\010\301\177?|\316\323?B\351\212>\277\300F\277\352$\306>\225\322\232\277\000\301\007@r\242.?\364\337\345\276cz\027\277\013\204\037>\016\311\311>\236\245\266?\032\010\025@\365\377#\277\214\364\335>V\262\361\277\222p\006\277;J\244\277\354\203r\277z\014\t\300\251m\032\277\226\226f\275b\377\344\276\255\277\254\277$\307(@\216\013p\277\020\342\370\276\352\322\262\277\202\304\007\300kK\t?(\332M\276DB\305\275b\3663?\330n\345?\374\274\206?\240\322.@\335,P?\364\022\302\277P\332\013?l\347\271>\026\017\233\276)\013\025\276\035+<>\345\222C\275V=\226?\365D\347\277\330B`?\230,\373\276\023\305\263=mH\004?~\362\347?\026\375\016\277/.d\276\272\345\"?)\020{?\256{\222\277yL\206\274*??\277\302\246\330<\320G\220\277\261\214\275\277\000\371\216>\025\002\330>Y\022*?E\261\031@\267\265\032\275!\261\021\300{~\225\276%\201]?LZ\376?\343\227\030\277?\231$\277\311*\226\275l\026-\275\304\n\016\277\230_4?\207\000u\275O\361\324\2755\361I\276{T\366\275\3036\302\275\345p,